{
  "version": "1.0",
  "truncation": null,
  "padding": null,
  "added_tokens": [
    {
      "id": 0,
      "content": "[PAD]",
      "single_word": false,
      "lstrip": false,
      "rstrip": false,
      "normalized": false,
      "special": true
    },
    {
      "id": 1,
      "content": "[UNK]",
      "single_word": false,
      "lstrip": false,
      "rstrip": false,
      "normalized": false,
      "special": true
    },
    {
      "id": 2,
      "content": "[BOS]",
      "single_word": false,
      "lstrip": false,
      "rstrip": false,
      "normalized": false,
      "special": true
    },
    {
      "id": 3,
      "content": "[EOS]",
      "single_word": false,
      "lstrip": false,
      "rstrip": false,
      "normalized": false,
      "special": true
    },
    {
      "id": 4,
      "content": "[SPK1]",
      "single_word": false,
      "lstrip": false,
      "rstrip": false,
      "normalized": false,
      "special": true
    },
    {
      "id": 5,
      "content": "[SPK2]",
      "single_word": false,
      "lstrip": false,
      "rstrip": false,
      "normalized": false,
      "special": true
    }
  ],
  "normalizer": null,
  "pre_tokenizer": {
    "type": "Whitespace"
  },
  "post_processor": null,
  "decoder": null,
  "model": {
    "type": "BPE",
    "dropout": null,
    "unk_token": "[UNK]",
    "continuing_subword_prefix": null,
    "end_of_word_suffix": null,
    "fuse_unk": false,
    "byte_fallback": false,
    "ignore_merges": false,
    "vocab": {
      "[PAD]": 0,
      "[UNK]": 1,
      "[BOS]": 2,
      "[EOS]": 3,
      "[SPK1]": 4,
      "[SPK2]": 5,
      "!": 6,
      "\"": 7,
      "'": 8,
      ",": 9,
      "-": 10,
      ".": 11,
      "0": 12,
      "1": 13,
      "2": 14,
      "3": 15,
      "4": 16,
      "5": 17,
      "6": 18,
      "7": 19,
      "8": 20,
      "9": 21,
      ":": 22,
      ";": 23,
      "?": 24,
      "A": 25,
      "B": 26,
      "C": 27,
      "D": 28,
      "E": 29,
      "F": 30,
      "G": 31,
      "H": 32,
      "I": 33,
      "J": 34,
      "K": 35,
      "L": 36,
      "M": 37,
      "N": 38,
      "O": 39,
      "P": 40,
      "Q": 41,
      "R": 42,
      "S": 43,
      "T": 44,
      "U": 45,
      "V": 46,
      "W": 47,
      "X": 48,
      "Y": 49,
      "Z": 50,
      "_": 51,
      "a": 52,
      "b": 53,
      "c": 54,
      "d": 55,
      "e": 56,
      "f": 57,
      "g": 58,
      "h": 59,
      "i": 60,
      "j": 61,
      "k": 62,
      "l": 63,
      "m": 64,
      "n": 65,
      "o": 66,
      "p": 67,
      "q": 68,
      "r": 69,
      "s": 70,
      "t": 71,
      "u": 72,
      "v": 73,
      "w": 74,
      "x": 75,
      "y": 76,
      "z": 77,
      "º": 78,
      "½": 79,
      "¾": 80,
      "Á": 81,
      "Â": 82,
      "É": 83,
      "Ô": 84,
      "à": 85,
      "á": 86,
      "â": 87,
      "ã": 88,
      "ä": 89,
      "è": 90,
      "é": 91,
      "ì": 92,
      "í": 93,
      "î": 94,
      "ñ": 95,
      "ò": 96,
      "ó": 97,
      "ô": 98,
      "ö": 99,
      "ú": 100,
      "ü": 101,
      "ā": 102,
      "ć": 103,
      "ī": 104,
      "ō": 105,
      "ɑ": 106,
      "Ω": 107,
      "μ": 108,
      "π": 109,
      "σ": 110,
      "А": 111,
      "Б": 112,
      "И": 113,
      "К": 114,
      "М": 115,
      "С": 116,
      "а": 117,
      "б": 118,
      "в": 119,
      "г": 120,
      "д": 121,
      "е": 122,
      "ж": 123,
      "з": 124,
      "и": 125,
      "й": 126,
      "к": 127,
      "л": 128,
      "м": 129,
      "н": 130,
      "о": 131,
      "п": 132,
      "р": 133,
      "с": 134,
      "т": 135,
      "у": 136,
      "ф": 137,
      "х": 138,
      "ч": 139,
      "щ": 140,
      "ы": 141,
      "ь": 142,
      "э": 143,
      "ю": 144,
      "я": 145,
      "і": 146,
      "ս": 147,
      "ⅾ": 148,
      "后": 149,
      "回": 150,
      "宫": 151,
      "沈": 152,
      "泪": 153,
      "湿": 154,
      "舟": 155,
      "行": 156,
      "词": 157,
      "th": 158,
      "in": 159,
      "an": 160,
      "er": 161,
      "re": 162,
      "on": 163,
      "the": 164,
      "at": 165,
      "en": 166,
      "ou": 167,
      "es": 168,
      "or": 169,
      "ing": 170,
      "al": 171,
      "and": 172,
      "to": 173,
      "it": 174,
      "ed": 175,
      "st": 176,
      "ar": 177,
      "is": 178,
      "of": 179,
      "as": 180,
      "ic": 181,
      "ion": 182,
      "le": 183,
      "om": 184,
      "ch": 185,
      "el": 186,
      "ent": 187,
      "you": 188,
      "il": 189,
      "ro": 190,
      "ct": 191,
      "for": 192,
      "se": 193,
      "ve": 194,
      "he": 195,
      "ad": 196,
      "ow": 197,
      "be": 198,
      "id": 199,
      "im": 200,
      "am": 201,
      "su": 202,
      "ol": 203,
      "that": 204,
      "ce": 205,
      "et": 206,
      "com": 207,
      "ab": 208,
      "ation": 209,
      "ig": 210,
      "ay": 211,
      "are": 212,
      "ver": 213,
      "ly": 214,
      "us": 215,
      "pro": 216,
      "ith": 217,
      "ir": 218,
      "ut": 219,
      "with": 220,
      "wh": 221,
      "ers": 222,
      "ex": 223,
      "if": 224,
      "mo": 225,
      "un": 226,
      "lo": 227,
      "ac": 228,
      "ag": 229,
      "ur": 230,
      "con": 231,
      "can": 232,
      "ess": 233,
      "ul": 234,
      "op": 235,
      "ke": 236,
      "ment": 237,
      "ne": 238,
      "ot": 239,
      "tr": 240,
      "ma": 241,
      "The": 242,
      "ha": 243,
      "res": 244,
      "de": 245,
      "ate": 246,
      "out": 247,
      "ter": 248,
      "pl": 249,
      "ere": 250,
      "so": 251,
      "pe": 252,
      "all": 253,
      "ld": 254,
      "me": 255,
      "ill": 256,
      "act": 257,
      "Th": 258,
      "ies": 259,
      "ity": 260,
      "fr": 261,
      "your": 262,
      "ive": 263,
      "iv": 264,
      "igh": 265,
      "est": 266,
      "ap": 267,
      "our": 268,
      "was": 269,
      "we": 270,
      "fe": 271,
      "te": 272,
      "ome": 273,
      "qu": 274,
      "sh": 275,
      "ain": 276,
      "oo": 277,
      "ould": 278,
      "ant": 279,
      "wor": 280,
      "per": 281,
      "str": 282,
      "oun": 283,
      "art": 284,
      "have": 285,
      "ind": 286,
      "ial": 287,
      "pr": 288,
      "ther": 289,
      "end": 290,
      "ide": 291,
      "li": 292,
      "their": 293,
      "po": 294,
      "gr": 295,
      "any": 296,
      "ight": 297,
      "cl": 298,
      "ions": 299,
      "cre": 300,
      "ip": 301,
      "ure": 302,
      "more": 303,
      "em": 304,
      "ort": 305,
      "iz": 306,
      "ell": 307,
      "king": 308,
      "one": 309,
      "some": 310,
      "my": 311,
      "able": 312,
      "up": 313,
      "ast": 314,
      "gh": 315,
      "by": 316,
      "age": 317,
      "form": 318,
      "ud": 319,
      "do": 320,
      "ist": 321,
      "um": 322,
      "ge": 323,
      "but": 324,
      "co": 325,
      "sp": 326,
      "du": 327,
      "ine": 328,
      "from": 329,
      "av": 330,
      "ack": 331,
      "ple": 332,
      "ach": 333,
      "tim": 334,
      "ough": 335,
      "about": 336,
      "ally": 337,
      "prov": 338,
      "her": 339,
      "In": 340,
      "fer": 341,
      "ust": 342,
      "It": 343,
      "ound": 344,
      "will": 345,
      "hel": 346,
      "use": 347,
      "this": 348,
      "ood": 349,
      "ie": 350,
      "how": 351,
      "port": 352,
      "they": 353,
      "help": 354,
      "ard": 355,
      "not": 356,
      "get": 357,
      "now": 358,
      "ign": 359,
      "ice": 360,
      "has": 361,
      "ance": 362,
      "new": 363,
      "way": 364,
      "ence": 365,
      "go": 366,
      "ef": 367,
      "work": 368,
      "other": 369,
      "add": 370,
      "ase": 371,
      "br": 372,
      "cr": 373,
      "cess": 374,
      "ous": 375,
      "ite": 376,
      "comm": 377,
      "its": 378,
      "dis": 379,
      "der": 380,
      "pre": 381,
      "This": 382,
      "like": 383,
      "gy": 384,
      "Can": 385,
      "them": 386,
      "Wh": 387,
      "ep": 388,
      "thing": 389,
      "had": 390,
      "ass": 391,
      "ts": 392,
      "ace": 393,
      "ev": 394,
      "enc": 395,
      "fl": 396,
      "ong": 397,
      "ated": 398,
      "very": 399,
      "ful": 400,
      "ta": 401,
      "ich": 402,
      "ations": 403,
      "ition": 404,
      "cial": 405,
      "also": 406,
      "fo": 407,
      "time": 408,
      "cus": 409,
      "over": 410,
      "day": 411,
      "ific": 412,
      "af": 413,
      "comp": 414,
      "comma": 415,
      "_comma": 416,
      "_comma_": 417,
      "ib": 418,
      "ile": 419,
      "ck": 420,
      "col": 421,
      "ark": 422,
      "gre": 423,
      "ser": 424,
      "such": 425,
      "spe": 426,
      "int": 427,
      "ction": 428,
      "ear": 429,
      "no": 430,
      "tom": 431,
      "cont": 432,
      "ci": 433,
      "ress": 434,
      "ire": 435,
      "ical": 436,
      "ely": 437,
      "ail": 438,
      "ater": 439,
      "she": 440,
      "which": 441,
      "know": 442,
      "ia": 443,
      "des": 444,
      "inter": 445,
      "ents": 446,
      "ors": 447,
      "incl": 448,
      "bo": 449,
      "ame": 450,
      "ener": 451,
      "als": 452,
      "ty": 453,
      "ans": 454,
      "dif": 455,
      "who": 456,
      "own": 457,
      "ities": 458,
      "his": 459,
      "eng": 460,
      "vel": 461,
      "dr": 462,
      "part": 463,
      "med": 464,
      "ating": 465,
      "cor": 466,
      "pos": 467,
      "provide": 468,
      "were": 469,
      "low": 470,
      "ks": 471,
      "been": 472,
      "there": 473,
      "ult": 474,
      "could": 475,
      "ang": 476,
      "would": 477,
      "fect": 478,
      "just": 479,
      "sy": 480,
      "make": 481,
      "ens": 482,
      "sure": 483,
      "ren": 484,
      "ob": 485,
      "what": 486,
      "row": 487,
      "into": 488,
      "need": 489,
      "ick": 490,
      "aw": 491,
      "produ": 492,
      "ext": 493,
      "ments": 494,
      "man": 495,
      "thr": 496,
      "ory": 497,
      "back": 498,
      "gg": 499,
      "bl": 500,
      "ting": 501,
      "exper": 502,
      "ue": 503,
      "cur": 504,
      "alth": 505,
      "ish": 506,
      "when": 507,
      "pers": 508,
      "chn": 509,
      "ild": 510,
      "exam": 511,
      "bet": 512,
      "stru": 513,
      "You": 514,
      "ary": 515,
      "00": 516,
      "these": 517,
      "ces": 518,
      "ices": 519,
      "An": 520,
      "How": 521,
      "ber": 522,
      "imp": 523,
      "inform": 524,
      "lif": 525,
      "au": 526,
      "ink": 527,
      "lear": 528,
      "through": 529,
      "ll": 530,
      "That": 531,
      "read": 532,
      "ility": 533,
      "differ": 534,
      "techn": 535,
      "det": 536,
      "should": 537,
      "We": 538,
      "sup": 539,
      "ious": 540,
      "olo": 541,
      "come": 542,
      "sel": 543,
      "mark": 544,
      "les": 545,
      "ds": 546,
      "ade": 547,
      "ph": 548,
      "di": 549,
      "well": 550,
      "loo": 551,
      "used": 552,
      "serv": 553,
      "sk": 554,
      "ience": 555,
      "ness": 556,
      "ople": 557,
      "ning": 558,
      "bu": 559,
      "feel": 560,
      "ree": 561,
      "mon": 562,
      "ak": 563,
      "health": 564,
      "ics": 565,
      "ures": 566,
      "fin": 567,
      "ca": 568,
      "people": 569,
      "good": 570,
      "tion": 571,
      "plo": 572,
      "min": 573,
      "Ch": 574,
      "off": 575,
      "ize": 576,
      "sol": 577,
      "ese": 578,
      "great": 579,
      "dat": 580,
      "information": 581,
      "did": 582,
      "custom": 583,
      "ange": 584,
      "commun": 585,
      "stand": 586,
      "cent": 587,
      "fore": 588,
      "person": 589,
      "high": 590,
      "different": 591,
      "What": 592,
      "inv": 593,
      "coun": 594,
      "arch": 595,
      "ative": 596,
      "arr": 597,
      "ased": 598,
      "life": 599,
      "play": 600,
      "He": 601,
      "may": 602,
      "rel": 603,
      "ings": 604,
      "fri": 605,
      "lect": 606,
      "using": 607,
      "ways": 608,
      "uring": 609,
      "stud": 610,
      "ular": 611,
      "see": 612,
      "want": 613,
      "ook": 614,
      "includ": 615,
      "velop": 616,
      "year": 617,
      "fun": 618,
      "ude": 619,
      "under": 620,
      "too": 621,
      "friend": 622,
      "sur": 623,
      "gram": 624,
      "gan": 625,
      "set": 626,
      "ect": 627,
      "sign": 628,
      "wr": 629,
      "tw": 630,
      "develop": 631,
      "each": 632,
      "ential": 633,
      "market": 634,
      "old": 635,
      "ily": 636,
      "pa": 637,
      "social": 638,
      "don": 639,
      "reg": 640,
      "ise": 641,
      "Ad": 642,
      "gu": 643,
      "ons": 644,
      "pp": 645,
      "They": 646,
      "spec": 647,
      "As": 648,
      "ys": 649,
      "light": 650,
      "self": 651,
      "cal": 652,
      "ips": 653,
      "urn": 654,
      "product": 655,
      "Yes": 656,
      "ates": 657,
      "than": 658,
      "care": 659,
      "ustr": 660,
      "vis": 661,
      "ural": 662,
      "ible": 663,
      "iness": 664,
      "Re": 665,
      "ality": 666,
      "impact": 667,
      "sm": 668,
      "energy": 669,
      "tho": 670,
      "vers": 671,
      "pow": 672,
      "che": 673,
      "ix": 674,
      "every": 675,
      "sal": 676,
      "ever": 677,
      "val": 678,
      "pres": 679,
      "long": 680,
      "stem": 681,
      "start": 682,
      "where": 683,
      "really": 684,
      "tain": 685,
      "cho": 686,
      "most": 687,
      "many": 688,
      "program": 689,
      "ject": 690,
      "take": 691,
      "fic": 692,
      "incre": 693,
      "line": 694,
      "try": 695,
      "bus": 696,
      "ivid": 697,
      "fir": 698,
      "ual": 699,
      "support": 700,
      "provid": 701,
      "technolo": 702,
      "ins": 703,
      "let": 704,
      "find": 705,
      "ied": 706,
      "think": 707,
      "20": 708,
      "St": 709,
      "fam": 710,
      "mer": 711,
      "She": 712,
      "iqu": 713,
      "mem": 714,
      "even": 715,
      "ner": 716,
      "ples": 717,
      "put": 718,
      "prom": 719,
      "char": 720,
      "search": 721,
      "system": 722,
      "eas": 723,
      "made": 724,
      "ss": 725,
      "create": 726,
      "data": 727,
      "detail": 728,
      "specific": 729,
      "world": 730,
      "effect": 731,
      "pol": 732,
      "ability": 733,
      "here": 734,
      "right": 735,
      "ized": 736,
      "vir": 737,
      "55": 738,
      "bs": 739,
      "ry": 740,
      "pract": 741,
      "while": 742,
      "requ": 743,
      "del": 744,
      "pot": 745,
      "ten": 746,
      "But": 747,
      "ted": 748,
      "team": 749,
      "clo": 750,
      "var": 751,
      "bre": 752,
      "red": 753,
      "cer": 754,
      "struct": 755,
      "then": 756,
      "For": 757,
      "Do": 758,
      "down": 759,
      "led": 760,
      "media": 761,
      "ah": 762,
      "redu": 763,
      "Here": 764,
      "lead": 765,
      "ye": 766,
      "design": 767,
      "fol": 768,
      "hop": 769,
      "vie": 770,
      "access": 771,
      "ives": 772,
      "sa": 773,
      "En": 774,
      "ding": 775,
      "plan": 776,
      "io": 777,
      "pect": 778,
      "him": 779,
      "cult": 780,
      "ences": 781,
      "food": 782,
      "including": 783,
      "..": 784,
      "car": 785,
      "iting": 786,
      "business": 787,
      "fact": 788,
      "mu": 789,
      "jo": 790,
      "happ": 791,
      "chall": 792,
      "industr": 793,
      "step": 794,
      "sto": 795,
      "att": 796,
      "ward": 797,
      "pt": 798,
      "only": 799,
      "turn": 800,
      "oup": 801,
      "examples": 802,
      "power": 803,
      "air": 804,
      "before": 805,
      "ident": 806,
      "signific": 807,
      "ms": 808,
      "Add": 809,
      "imple": 810,
      "individ": 811,
      "build": 812,
      "ced": 813,
      "lar": 814,
      "ake": 815,
      "during": 816,
      "water": 817,
      "ication": 818,
      "mental": 819,
      "sul": 820,
      "ources": 821,
      "itional": 822,
      "experience": 823,
      "adv": 824,
      "ble": 825,
      "ven": 826,
      "much": 827,
      "around": 828,
      "hand": 829,
      "first": 830,
      "grow": 831,
      "ash": 832,
      "__": 833,
      "home": 834,
      "include": 835,
      "cons": 836,
      "job": 837,
      "ved": 838,
      "offer": 839,
      "follow": 840,
      "ited": 841,
      "understand": 842,
      "atch": 843,
      "ational": 844,
      "uc": 845,
      "place": 846,
      "par": 847,
      "give": 848,
      "ian": 849,
      "tions": 850,
      "ature": 851,
      "going": 852,
      "better": 853,
      "tern": 854,
      "found": 855,
      "real": 856,
      "ric": 857,
      "comple": 858,
      "text": 859,
      "ages": 860,
      "Than": 861,
      "iss": 862,
      "making": 863,
      "resp": 864,
      "being": 865,
      "ety": 866,
      "technology": 867,
      "To": 868,
      "prove": 869,
      "ense": 870,
      "suc": 871,
      "love": 872,
      "num": 873,
      "bel": 874,
      "gl": 875,
      "process": 876,
      "My": 877,
      "always": 878,
      "import": 879,
      "show": 880,
      "exp": 881,
      "dep": 882,
      "viron": 883,
      "app": 884,
      "inst": 885,
      "view": 886,
      "less": 887,
      "though": 888,
      "If": 889,
      "And": 890,
      "ben": 891,
      "few": 892,
      "emplo": 893,
      "significant": 894,
      "pass": 895,
      "aterial": 896,
      "small": 897,
      "ave": 898,
      "organ": 899,
      "pat": 900,
      "tell": 901,
      "til": 902,
      "These": 903,
      "pur": 904,
      "partic": 905,
      "ique": 906,
      "two": 907,
      "ider": 908,
      "environ": 909,
      "after": 910,
      "challeng": 911,
      "mind": 912,
      "activ": 913,
      "interest": 914,
      "Al": 915,
      "ween": 916,
      "Use": 917,
      "got": 918,
      "please": 919,
      "improve": 920,
      "oth": 921,
      "strate": 922,
      "cause": 923,
      "ify": 924,
      "itive": 925,
      "Con": 926,
      "sing": 927,
      "allow": 928,
      "between": 929,
      "uals": 930,
      "ggest": 931,
      "best": 932,
      "ving": 933,
      "success": 934,
      "material": 935,
      "suggest": 936,
      "personal": 937,
      "trad": 938,
      "avor": 939,
      "cour": 940,
      "wee": 941,
      "marketing": 942,
      "ills": 943,
      "ves": 944,
      "example": 945,
      "keep": 946,
      "user": 947,
      "arm": 948,
      "aud": 949,
      "cam": 950,
      "aging": 951,
      "hope": 952,
      "top": 953,
      "dy": 954,
      "gener": 955,
      "promot": 956,
      "industry": 957,
      "based": 958,
      "ization": 959,
      "sum": 960,
      "prof": 961,
      "benef": 962,
      "por": 963,
      "cond": 964,
      "side": 965,
      "post": 966,
      "atures": 967,
      "cy": 968,
      "anal": 969,
      "list": 970,
      "focus": 971,
      "lit": 972,
      "company": 973,
      "agement": 974,
      "10": 975,
      "learn": 976,
      "years": 977,
      "family": 978,
      "sound": 979,
      "tal": 980,
      "ior": 981,
      "kes": 982,
      "last": 983,
      "research": 984,
      "iving": 985,
      "potential": 986,
      "move": 987,
      "az": 988,
      "resul": 989,
      "both": 990,
      "fi": 991,
      "gies": 992,
      "ines": 993,
      "those": 994,
      "So": 995,
      "aph": 996,
      "blo": 997,
      "mail": 998,
      "brand": 999,
      "cost": 1000,
      "No": 1001,
      "gar": 1002,
      "ient": 1003,
      "look": 1004,
      "reat": 1005,
      "ues": 1006,
      "mus": 1007,
      "els": 1008,
      "Pro": 1009,
      "something": 1010,
      "present": 1011,
      "perform": 1012,
      "implement": 1013,
      "still": 1014,
      "ants": 1015,
      "Oh": 1016,
      "ather": 1017,
      "cap": 1018,
      "os": 1019,
      "land": 1020,
      "must": 1021,
      "tips": 1022,
      "details": 1023,
      "There": 1024,
      "change": 1025,
      "tle": 1026,
      "head": 1027,
      "webs": 1028,
      "ired": 1029,
      "Un": 1030,
      "hard": 1031,
      "sty": 1032,
      "call": 1033,
      "tem": 1034,
      "gether": 1035,
      "vent": 1036,
      "sub": 1037,
      "mix": 1038,
      "quality": 1039,
      "does": 1040,
      "fac": 1041,
      "However": 1042,
      "customer": 1043,
      "level": 1044,
      "minut": 1045,
      "room": 1046,
      "until": 1047,
      "ution": 1048,
      "conom": 1049,
      "free": 1050,
      "often": 1051,
      "charact": 1052,
      "individuals": 1053,
      "pare": 1054,
      "community": 1055,
      "15": 1056,
      "face": 1057,
      "ele": 1058,
      "cle": 1059,
      "project": 1060,
      "ibut": 1061,
      "soci": 1062,
      "content": 1063,
      "class": 1064,
      "chang": 1065,
      "trans": 1066,
      "services": 1067,
      "iven": 1068,
      "flu": 1069,
      "joy": 1070,
      "group": 1071,
      "test": 1072,
      "cover": 1073,
      "ieve": 1074,
      "contin": 1075,
      "book": 1076,
      "together": 1077,
      "unique": 1078,
      "aining": 1079,
      "invest": 1080,
      "elt": 1081,
      "Com": 1082,
      "Sure": 1083,
      "never": 1084,
      "ict": 1085,
      "ref": 1086,
      "ency": 1087,
      "sl": 1088,
      "fiel": 1089,
      "pain": 1090,
      "dec": 1091,
      "development": 1092,
      "expl": 1093,
      "cell": 1094,
      "chain": 1095,
      "loc": 1096,
      "commend": 1097,
      "rest": 1098,
      "story": 1099,
      "sever": 1100,
      "aste": 1101,
      "employe": 1102,
      "12": 1103,
      "ier": 1104,
      "curren": 1105,
      "won": 1106,
      "crip": 1107,
      "oc": 1108,
      "ling": 1109,
      "sc": 1110,
      "stain": 1111,
      "ush": 1112,
      "again": 1113,
      "ables": 1114,
      "chool": 1115,
      "ath": 1116,
      "hist": 1117,
      "contr": 1118,
      "working": 1119,
      "pie": 1120,
      "tar": 1121,
      "ending": 1122,
      ".,": 1123,
      "ouse": 1124,
      "conne": 1125,
      "lab": 1126,
      "pop": 1127,
      "recommend": 1128,
      "share": 1129,
      "website": 1130,
      "case": 1131,
      "econom": 1132,
      "appro": 1133,
      "ub": 1134,
      "ubl": 1135,
      "Ex": 1136,
      "week": 1137,
      "appl": 1138,
      "aking": 1139,
      "ris": 1140,
      "ensure": 1141,
      "Over": 1142,
      "experi": 1143,
      "cup": 1144,
      "met": 1145,
      "pes": 1146,
      "ories": 1147,
      "tool": 1148,
      ".\"": 1149,
      "lim": 1150,
      "miss": 1151,
      "things": 1152,
      "poss": 1153,
      "skills": 1154,
      "vide": 1155,
      "itions": 1156,
      "clear": 1157,
      "felt": 1158,
      "features": 1159,
      "challenges": 1160,
      "child": 1161,
      "angu": 1162,
      "oil": 1163,
      "ped": 1164,
      "sit": 1165,
      "hy": 1166,
      "reduce": 1167,
      "net": 1168,
      "open": 1169,
      "bal": 1170,
      "ery": 1171,
      "resources": 1172,
      "month": 1173,
      "customers": 1174,
      "Be": 1175,
      "table": 1176,
      "cording": 1177,
      "Tr": 1178,
      "cing": 1179,
      "pan": 1180,
      "pay": 1181,
      "say": 1182,
      "ask": 1183,
      "easy": 1184,
      "Ar": 1185,
      "One": 1186,
      "ew": 1187,
      "langu": 1188,
      "minutes": 1189,
      "nat": 1190,
      "sense": 1191,
      "itionally": 1192,
      "yes": 1193,
      "study": 1194,
      "function": 1195,
      "didn": 1196,
      "bers": 1197,
      "ann": 1198,
      "prote": 1199,
      "benefits": 1200,
      "educ": 1201,
      "sustain": 1202,
      "graph": 1203,
      "Could": 1204,
      "cook": 1205,
      "mom": 1206,
      "When": 1207,
      "emo": 1208,
      "ately": 1209,
      "products": 1210,
      "19": 1211,
      "hum": 1212,
      "ost": 1213,
      "dish": 1214,
      "aut": 1215,
      "ital": 1216,
      "issu": 1217,
      "maint": 1218,
      "sport": 1219,
      "Additionally": 1220,
      "number": 1221,
      "iver": 1222,
      "On": 1223,
      "email": 1224,
      "rele": 1225,
      "avail": 1226,
      "bro": 1227,
      "stay": 1228,
      "Well": 1229,
      "oper": 1230,
      "important": 1231,
      "publ": 1232,
      "because": 1233,
      "ours": 1234,
      "By": 1235,
      "elect": 1236,
      "fil": 1237,
      "users": 1238,
      "various": 1239,
      "Gr": 1240,
      "key": 1241,
      "traditional": 1242,
      "came": 1243,
      "ger": 1244,
      "writing": 1245,
      "past": 1246,
      "school": 1247,
      "lot": 1248,
      "natural": 1249,
      "mil": 1250,
      "local": 1251,
      "friends": 1252,
      "555": 1253,
      "kind": 1254,
      "oh": 1255,
      "ground": 1256,
      "oney": 1257,
      "check": 1258,
      "May": 1259,
      "mar": 1260,
      "ilities": 1261,
      "proper": 1262,
      "flow": 1263,
      "next": 1264,
      "run": 1265,
      "portun": 1266,
      "corpor": 1267,
      "invol": 1268,
      "member": 1269,
      "house": 1270,
      "ping": 1271,
      "ars": 1272,
      "renew": 1273,
      "online": 1274,
      "ross": 1275,
      "ones": 1276,
      "ively": 1277,
      "contro": 1278,
      "ream": 1279,
      "areas": 1280,
      "ually": 1281,
      "influ": 1282,
      "ason": 1283,
      "ism": 1284,
      "ession": 1285,
      "wal": 1286,
      "target": 1287,
      "sens": 1288,
      "report": 1289,
      "positive": 1290,
      "ready": 1291,
      "paign": 1292,
      "city": 1293,
      "return": 1294,
      "pep": 1295,
      "special": 1296,
      "said": 1297,
      "Is": 1298,
      "Pl": 1299,
      "Wr": 1300,
      "ship": 1301,
      "little": 1302,
      "ican": 1303,
      "beaut": 1304,
      "increase": 1305,
      "opportun": 1306,
      "growth": 1307,
      "bot": 1308,
      "cut": 1309,
      "night": 1310,
      "without": 1311,
      "service": 1312,
      "solut": 1313,
      "cas": 1314,
      "comes": 1315,
      "style": 1316,
      "fast": 1317,
      "ond": 1318,
      "veget": 1319,
      "ems": 1320,
      "curity": 1321,
      "materials": 1322,
      "language": 1323,
      "range": 1324,
      "count": 1325,
      "vari": 1326,
      "today": 1327,
      "proble": 1328,
      "action": 1329,
      "meet": 1330,
      "spir": 1331,
      "phys": 1332,
      "students": 1333,
      "pack": 1334,
      "ton": 1335,
      "ertain": 1336,
      "needs": 1337,
      "activities": 1338,
      "bor": 1339,
      "oid": 1340,
      "000": 1341,
      "metho": 1342,
      "known": 1343,
      "equ": 1344,
      "wa": 1345,
      "another": 1346,
      "plat": 1347,
      "quest": 1348,
      "event": 1349,
      "ensive": 1350,
      "Pr": 1351,
      "sof": 1352,
      "body": 1353,
      "sym": 1354,
      "consider": 1355,
      "resh": 1356,
      "ists": 1357,
      "connect": 1358,
      "Of": 1359,
      "fill": 1360,
      "expect": 1361,
      "several": 1362,
      "jour": 1363,
      "ps": 1364,
      "vi": 1365,
      "comb": 1366,
      "tran": 1367,
      "sim": 1368,
      "address": 1369,
      "polic": 1370,
      "course": 1371,
      "field": 1372,
      "Overall": 1373,
      "nam": 1374,
      "become": 1375,
      "point": 1376,
      "type": 1377,
      "renewable": 1378,
      "ore": 1379,
      "Ste": 1380,
      "ids": 1381,
      "usion": 1382,
      "meas": 1383,
      "hot": 1384,
      "ivers": 1385,
      "Thank": 1386,
      "ead": 1387,
      "name": 1388,
      "thor": 1389,
      "essential": 1390,
      "wards": 1391,
      "hit": 1392,
      "vern": 1393,
      "flavor": 1394,
      "cipe": 1395,
      "lef": 1396,
      "provides": 1397,
      "enjoy": 1398,
      "large": 1399,
      "audience": 1400,
      "away": 1401,
      "pap": 1402,
      "ato": 1403,
      "ats": 1404,
      "coming": 1405,
      "dients": 1406,
      "offers": 1407,
      "systems": 1408,
      "reach": 1409,
      "tow": 1410,
      "ivity": 1411,
      "compet": 1412,
      "campaign": 1413,
      "bol": 1414,
      "game": 1415,
      "ince": 1416,
      "role": 1417,
      "explo": 1418,
      "color": 1419,
      "practices": 1420,
      "others": 1421,
      "mess": 1422,
      "sounds": 1423,
      "music": 1424,
      "dire": 1425,
      "tra": 1426,
      "happy": 1427,
      "available": 1428,
      "Im": 1429,
      "forms": 1430,
      "unch": 1431,
      "relation": 1432,
      "____": 1433,
      "ax": 1434,
      "cheese": 1435,
      "sci": 1436,
      "acy": 1437,
      "gen": 1438,
      "solar": 1439,
      "employees": 1440,
      "security": 1441,
      "times": 1442,
      "ished": 1443,
      "looking": 1444,
      "value": 1445,
      "successful": 1446,
      "block": 1447,
      ",\"": 1448,
      "ture": 1449,
      "main": 1450,
      "affect": 1451,
      "types": 1452,
      "communication": 1453,
      "14": 1454,
      "print": 1455,
      "Thanks": 1456,
      "Write": 1457,
      "might": 1458,
      "heart": 1459,
      "exc": 1460,
      "word": 1461,
      "ibility": 1462,
      "icken": 1463,
      "deter": 1464,
      "performance": 1465,
      "sau": 1466,
      "mean": 1467,
      "space": 1468,
      "same": 1469,
      "treat": 1470,
      "ze": 1471,
      "shop": 1472,
      "strugg": 1473,
      "labor": 1474,
      "hold": 1475,
      "ord": 1476,
      "itor": 1477,
      "heat": 1478,
      "options": 1479,
      "uck": 1480,
      "itical": 1481,
      "ney": 1482,
      "respons": 1483,
      "profession": 1484,
      "control": 1485,
      "compan": 1486,
      "diffic": 1487,
      "Fr": 1488,
      "Some": 1489,
      "knew": 1490,
      "sha": 1491,
      "order": 1492,
      "mot": 1493,
      "bring": 1494,
      "colle": 1495,
      "learning": 1496,
      "everything": 1497,
      "particip": 1498,
      "environment": 1499,
      "clean": 1500,
      "With": 1501,
      "bi": 1502,
      "character": 1503,
      "approach": 1504,
      "rece": 1505,
      "strong": 1506,
      "contribut": 1507,
      "possible": 1508,
      "den": 1509,
      "recipe": 1510,
      "uture": 1511,
      "training": 1512,
      "gin": 1513,
      "ically": 1514,
      "hear": 1515,
      "idea": 1516,
      "goals": 1517,
      "structure": 1518,
      "wind": 1519,
      "strategies": 1520,
      "aid": 1521,
      "swe": 1522,
      "oose": 1523,
      "reng": 1524,
      "regular": 1525,
      "businesses": 1526,
      "left": 1527,
      "mal": 1528,
      "prevent": 1529,
      "feeling": 1530,
      "govern": 1531,
      "happen": 1532,
      "following": 1533,
      "sle": 1534,
      "ooking": 1535,
      "public": 1536,
      "Ye": 1537,
      "recent": 1538,
      "ium": 1539,
      "nut": 1540,
      "went": 1541,
      "uses": 1542,
      "ought": 1543,
      "tional": 1544,
      "cultural": 1545,
      "Certain": 1546,
      "Res": 1547,
      "Se": 1548,
      "od": 1549,
      "within": 1550,
      "conf": 1551,
      "aged": 1552,
      "dev": 1553,
      "perfect": 1554,
      "sauce": 1555,
      "Let": 1556,
      "improv": 1557,
      "creating": 1558,
      "someone": 1559,
      "helps": 1560,
      "building": 1561,
      "Br": 1562,
      "bow": 1563,
      "gn": 1564,
      "input": 1565,
      "streng": 1566,
      "izing": 1567,
      "Certainly": 1568,
      "position": 1569,
      "structions": 1570,
      "big": 1571,
      "future": 1572,
      "lex": 1573,
      "effic": 1574,
      "encour": 1575,
      "visit": 1576,
      "history": 1577,
      "economic": 1578,
      "Des": 1579,
      "ove": 1580,
      "iced": 1581,
      "itch": 1582,
      "avel": 1583,
      "programs": 1584,
      "Joh": 1585,
      "file": 1586,
      "watch": 1587,
      "necess": 1588,
      "cream": 1589,
      "days": 1590,
      "pepper": 1591,
      "ho": 1592,
      "init": 1593,
      "fort": 1594,
      "ief": 1595,
      "finan": 1596,
      "popular": 1597,
      "Ro": 1598,
      "Wow": 1599,
      "aur": 1600,
      "ded": 1601,
      "sw": 1602,
      "sor": 1603,
      "vol": 1604,
      "ets": 1605,
      "according": 1606,
      "yourself": 1607,
      "ysis": 1608,
      "ications": 1609,
      "store": 1610,
      "dro": 1611,
      "dist": 1612,
      "incorpor": 1613,
      "erc": 1614,
      "elf": 1615,
      "ime": 1616,
      "analy": 1617,
      "current": 1618,
      "direct": 1619,
      "dig": 1620,
      "atter": 1621,
      "quick": 1622,
      "array": 1623,
      "...": 1624,
      "issues": 1625,
      "hours": 1626,
      "icate": 1627,
      "why": 1628,
      "optim": 1629,
      "fresh": 1630,
      "anim": 1631,
      "active": 1632,
      "appe": 1633,
      "works": 1634,
      "break": 1635,
      "Did": 1636,
      "cu": 1637,
      "reli": 1638,
      "asing": 1639,
      "leg": 1640,
      "anything": 1641,
      "require": 1642,
      "changes": 1643,
      "beha": 1644,
      "amaz": 1645,
      "conv": 1646,
      "prefer": 1647,
      "John": 1648,
      "ator": 1649,
      "rodu": 1650,
      "achieve": 1651,
      "management": 1652,
      "providing": 1653,
      "particular": 1654,
      "companies": 1655,
      "difficult": 1656,
      "Cre": 1657,
      "aim": 1658,
      "stress": 1659,
      "urther": 1660,
      "string": 1661,
      "Em": 1662,
      "Sar": 1663,
      "money": 1664,
      "og": 1665,
      "Sh": 1666,
      "mult": 1667,
      "taking": 1668,
      "overall": 1669,
      "Yeah": 1670,
      "Are": 1671,
      "ban": 1672,
      "ners": 1673,
      "sat": 1674,
      "smo": 1675,
      "erg": 1676,
      "effective": 1677,
      "bad": 1678,
      "ane": 1679,
      "ides": 1680,
      "identify": 1681,
      "analysis": 1682,
      "live": 1683,
      "ering": 1684,
      "ret": 1685,
      "started": 1686,
      "Amer": 1687,
      "New": 1688,
      "track": 1689,
      "ideas": 1690,
      "descrip": 1691,
      "ingre": 1692,
      "salt": 1693,
      "fit": 1694,
      "enh": 1695,
      "itude": 1696,
      "pho": 1697,
      "complex": 1698,
      "events": 1699,
      "gam": 1700,
      "sources": 1701,
      "area": 1702,
      "ights": 1703,
      "clusion": 1704,
      "ken": 1705,
      "ising": 1706,
      "explain": 1707,
      "physical": 1708,
      "Sarah": 1709,
      "win": 1710,
      "ont": 1711,
      "actions": 1712,
      "Inst": 1713,
      "town": 1714,
      "18": 1715,
      "ming": 1716,
      "symbol": 1717,
      "rout": 1718,
      "wood": 1719,
      "omet": 1720,
      "teach": 1721,
      "promote": 1722,
      "sustainable": 1723,
      "30": 1724,
      "non": 1725,
      "reco": 1726,
      "chicken": 1727,
      "mob": 1728,
      "certain": 1729,
      "necessary": 1730,
      "date": 1731,
      "egg": 1732,
      "national": 1733,
      "ances": 1734,
      "vert": 1735,
      "exerc": 1736,
      "moder": 1737,
      "lik": 1738,
      "helped": 1739,
      "production": 1740,
      "experiences": 1741,
      "stat": 1742,
      "deep": 1743,
      "clim": 1744,
      "code": 1745,
      "express": 1746,
      "nav": 1747,
      "saw": 1748,
      "ision": 1749,
      "cept": 1750,
      "lower": 1751,
      "understanding": 1752,
      "thought": 1753,
      "mand": 1754,
      "mit": 1755,
      "enough": 1756,
      "trust": 1757,
      "Your": 1758,
      "favor": 1759,
      "tag": 1760,
      "three": 1761,
      "soon": 1762,
      "ource": 1763,
      "artic": 1764,
      "salad": 1765,
      "protect": 1766,
      "amazing": 1767,
      "lic": 1768,
      "pose": 1769,
      "needed": 1770,
      "piece": 1771,
      "neg": 1772,
      "journey": 1773,
      "ingredients": 1774,
      "state": 1775,
      "aring": 1776,
      "ention": 1777,
      "words": 1778,
      "country": 1779,
      "friendly": 1780,
      "tools": 1781,
      "Good": 1782,
      "mor": 1783,
      "inte": 1784,
      "door": 1785,
      "paren": 1786,
      "human": 1787,
      "towards": 1788,
      "seen": 1789,
      "terr": 1790,
      "additional": 1791,
      "Chin": 1792,
      "culture": 1793,
      "photo": 1794,
      "bur": 1795,
      "ination": 1796,
      "ift": 1797,
      "makes": 1798,
      "grad": 1799,
      "moment": 1800,
      "Ac": 1801,
      "bit": 1802,
      "nice": 1803,
      "rup": 1804,
      "took": 1805,
      "ledge": 1806,
      "bon": 1807,
      "cli": 1808,
      "living": 1809,
      "round": 1810,
      "aware": 1811,
      "iques": 1812,
      "financial": 1813,
      "gain": 1814,
      "ived": 1815,
      "common": 1816,
      "discus": 1817,
      "cul": 1818,
      "warm": 1819,
      "ying": 1820,
      "least": 1821,
      "ified": 1822,
      "concer": 1823,
      "essay": 1824,
      "restaur": 1825,
      "paper": 1826,
      "Our": 1827,
      "bab": 1828,
      "dress": 1829,
      "men": 1830,
      "tax": 1831,
      "maintain": 1832,
      "opportunities": 1833,
      "tries": 1834,
      "ships": 1835,
      "getting": 1836,
      "ashion": 1837,
      "motiv": 1838,
      "ug": 1839,
      "travel": 1840,
      "steps": 1841,
      "results": 1842,
      "--": 1843,
      "thin": 1844,
      "tru": 1845,
      "izations": 1846,
      "author": 1847,
      "techniques": 1848,
      "effects": 1849,
      "sequ": 1850,
      "imes": 1851,
      "def": 1852,
      "comput": 1853,
      "practice": 1854,
      "levels": 1855,
      "government": 1856,
      "youn": 1857,
      "ilar": 1858,
      "seem": 1859,
      "foot": 1860,
      "wonder": 1861,
      "Maybe": 1862,
      "vegetables": 1863,
      "transport": 1864,
      "bir": 1865,
      "super": 1866,
      "lost": 1867,
      "augh": 1868,
      "leav": 1869,
      "above": 1870,
      "iful": 1871,
      "agr": 1872,
      "Also": 1873,
      "conditions": 1874,
      "solutions": 1875,
      "equip": 1876,
      "modern": 1877,
      "Fin": 1878,
      "fall": 1879,
      "hol": 1880,
      "err": 1881,
      "sun": 1882,
      "board": 1883,
      "writ": 1884,
      "Create": 1885,
      "Man": 1886,
      "mill": 1887,
      "ends": 1888,
      "doing": 1889,
      "detailed": 1890,
      "respon": 1891,
      "purch": 1892,
      "sorry": 1893,
      "since": 1894,
      "ints": 1895,
      "season": 1896,
      "cool": 1897,
      "prepare": 1898,
      "sales": 1899,
      "designed": 1900,
      "against": 1901,
      "risk": 1902,
      "ball": 1903,
      "gress": 1904,
      "hom": 1905,
      "ply": 1906,
      "waste": 1907,
      "icious": 1908,
      "feed": 1909,
      "quant": 1910,
      "emp": 1911,
      "trying": 1912,
      "IN": 1913,
      "cooking": 1914,
      "fish": 1915,
      "law": 1916,
      "size": 1917,
      "ined": 1918,
      "across": 1919,
      "sleep": 1920,
      "_conv": 1921,
      "bed": 1922,
      "fig": 1923,
      "fashion": 1924,
      "lives": 1925,
      "anced": 1926,
      "stor": 1927,
      "avoid": 1928,
      "situ": 1929,
      "education": 1930,
      "bowl": 1931,
      "Cl": 1932,
      "enn": 1933,
      "among": 1934,
      "option": 1935,
      "enced": 1936,
      "skin": 1937,
      "members": 1938,
      "satis": 1939,
      "Af": 1940,
      "At": 1941,
      "bas": 1942,
      "cure": 1943,
      "card": 1944,
      "dream": 1945,
      "oud": 1946,
      "imag": 1947,
      "iple": 1948,
      "reflect": 1949,
      "milk": 1950,
      "thy": 1951,
      "ica": 1952,
      "que": 1953,
      "pret": 1954,
      "preci": 1955,
      "location": 1956,
      "beautiful": 1957,
      "problem": 1958,
      "blockchain": 1959,
      "favorite": 1960,
      "fu": 1961,
      "once": 1962,
      "abl": 1963,
      "illed": 1964,
      "nov": 1965,
      "boo": 1966,
      "given": 1967,
      "ched": 1968,
      "knowledge": 1969,
      "countries": 1970,
      "tware": 1971,
      "temper": 1972,
      "mixture": 1973,
      "children": 1974,
      "strength": 1975,
      "hal": 1976,
      "compl": 1977,
      "load": 1978,
      "mach": 1979,
      "short": 1980,
      "healthy": 1981,
      "leading": 1982,
      "interesting": 1983,
      "months": 1984,
      "bud": 1985,
      "ctor": 1986,
      "izz": 1987,
      "engagement": 1988,
      "distr": 1989,
      "pair": 1990,
      "pattern": 1991,
      "200": 1992,
      "Or": 1993,
      "ently": 1994,
      "forward": 1995,
      "adding": 1996,
      "fully": 1997,
      "All": 1998,
      "ster": 1999,
      "collabor": 2000,
      "setting": 2001,
      "reducing": 2002,
      "Che": 2003,
      "cin": 2004,
      "har": 2005,
      "ra": 2006,
      "enter": 2007,
      "abilities": 2008,
      "full": 2009,
      "values": 2010,
      "increased": 2011,
      "Step": 2012,
      "iversity": 2013,
      "explore": 2014,
      "wom": 2015,
      "whe": 2016,
      "lying": 2017,
      "acking": 2018,
      "convers": 2019,
      "close": 2020,
      "ike": 2021,
      "vant": 2022,
      "along": 2023,
      "hip": 2024,
      "ised": 2025,
      "igate": 2026,
      "defin": 2027,
      "plant": 2028,
      "highlight": 2029,
      "talk": 2030,
      "Not": 2031,
      "cop": 2032,
      "ges": 2033,
      "gical": 2034,
      "mun": 2035,
      "roll": 2036,
      "preh": 2037,
      "object": 2038,
      "electric": 2039,
      "sweet": 2040,
      "negative": 2041,
      "gest": 2042,
      "represent": 2043,
      "adap": 2044,
      "ount": 2045,
      "supply": 2046,
      "professional": 2047,
      "Col": 2048,
      "Don": 2049,
      "Her": 2050,
      "Ser": 2051,
      "Sal": 2052,
      "brow": 2053,
      "attr": 2054,
      "atives": 2055,
      "begin": 2056,
      "progress": 2057,
      "factors": 2058,
      "wait": 2059,
      "software": 2060,
      "Qu": 2061,
      "glo": 2062,
      "uro": 2063,
      "suit": 2064,
      "ival": 2065,
      "weight": 2066,
      "helpful": 2067,
      "tail": 2068,
      "result": 2069,
      "likely": 2070,
      "mine": 2071,
      "vo": 2072,
      "und": 2073,
      "assist": 2074,
      "evel": 2075,
      "policy": 2076,
      "mobile": 2077,
      "50": 2078,
      "Me": 2079,
      "far": 2080,
      "hab": 2081,
      "inner": 2082,
      "lease": 2083,
      "plac": 2084,
      "duct": 2085,
      "cru": 2086,
      "includes": 2087,
      "famil": 2088,
      "strategy": 2089,
      "integr": 2090,
      "hood": 2091,
      "la": 2092,
      "compreh": 2093,
      "created": 2094,
      "aily": 2095,
      "struction": 2096,
      "throughout": 2097,
      "variety": 2098,
      "determin": 2099,
      "done": 2100,
      "ran": 2101,
      "taste": 2102,
      "wall": 2103,
      "road": 2104,
      "emerg": 2105,
      "cry": 2106,
      "contain": 2107,
      "individual": 2108,
      "environmental": 2109,
      "walk": 2110,
      "ometimes": 2111,
      "Wor": 2112,
      "dark": 2113,
      "eyes": 2114,
      "further": 2115,
      "son": 2116,
      "vior": 2117,
      "choose": 2118,
      "adjust": 2119,
      "irl": 2120,
      "Why": 2121,
      "ification": 2122,
      "selves": 2123,
      "review": 2124,
      "icing": 2125,
      "else": 2126,
      "prior": 2127,
      "couldn": 2128,
      "characters": 2129,
      "AC": 2130,
      "Ab": 2131,
      "_555": 2132,
      "remember": 2133,
      "already": 2134,
      "true": 2135,
      "colors": 2136,
      "ned": 2137,
      "ok": 2138,
      "idence": 2139,
      "appreci": 2140,
      "perio": 2141,
      "ender": 2142,
      "While": 2143,
      "black": 2144,
      "wanted": 2145,
      "ns": 2146,
      "pite": 2147,
      "tre": 2148,
      "ared": 2149,
      "grat": 2150,
      "continu": 2151,
      "ral": 2152,
      "war": 2153,
      "itut": 2154,
      "aren": 2155,
      "having": 2156,
      "front": 2157,
      "poon": 2158,
      "due": 2159,
      "commit": 2160,
      "write": 2161,
      "garlic": 2162,
      "relevant": 2163,
      "behavior": 2164,
      "response": 2165,
      "Just": 2166,
      "Le": 2167,
      "Mark": 2168,
      "daily": 2169,
      "remo": 2170,
      "second": 2171,
      "term": 2172,
      "organizations": 2173,
      "scen": 2174,
      "hind": 2175,
      "kids": 2176,
      "sent": 2177,
      "forts": 2178,
      "news": 2179,
      "anger": 2180,
      "technologies": 2181,
      "instead": 2182,
      "patient": 2183,
      "costs": 2184,
      "dishes": 2185,
      "animals": 2186,
      "enhance": 2187,
      "budget": 2188,
      "ises": 2189,
      "ford": 2190,
      "cred": 2191,
      "posed": 2192,
      "monitor": 2193,
      "elements": 2194,
      "continue": 2195,
      "atoes": 2196,
      "Dr": 2197,
      "dam": 2198,
      "iate": 2199,
      "page": 2200,
      "sav": 2201,
      "ste": 2202,
      "cele": 2203,
      "account": 2204,
      "butter": 2205,
      "introdu": 2206,
      "healthcare": 2207,
      "importance": 2208,
      "methods": 2209,
      "climate": 2210,
      "discuss": 2211,
      "100": 2212,
      "band": 2213,
      "chan": 2214,
      "ayer": 2215,
      "ury": 2216,
      "deal": 2217,
      "establ": 2218,
      "ended": 2219,
      "young": 2220,
      "After": 2221,
      "girl": 2222,
      "lack": 2223,
      "ife": 2224,
      "fru": 2225,
      "takes": 2226,
      "autom": 2227,
      "looks": 2228,
      "akes": 2229,
      "related": 2230,
      "consist": 2231,
      "painting": 2232,
      "measure": 2233,
      "relationships": 2234,
      "parents": 2235,
      "restaurant": 2236,
      "13": 2237,
      "Please": 2238,
      "istr": 2239,
      "usu": 2240,
      "instructions": 2241,
      "ata": 2242,
      "ites": 2243,
      "points": 2244,
      "increasing": 2245,
      "effectively": 2246,
      "explor": 2247,
      "Make": 2248,
      "ountain": 2249,
      "added": 2250,
      "draw": 2251,
      "safe": 2252,
      "allows": 2253,
      "groups": 2254,
      "celebr": 2255,
      "believe": 2256,
      "equipment": 2257,
      "US": 2258,
      "cir": 2259,
      "sn": 2260,
      "spr": 2261,
      "secure": 2262,
      "became": 2263,
      "pecial": 2264,
      "weather": 2265,
      "engaging": 2266,
      "center": 2267,
      "society": 2268,
      "morning": 2269,
      "Po": 2270,
      "squ": 2271,
      "heav": 2272,
      "neigh": 2273,
      "demand": 2274,
      "affic": 2275,
      "surv": 2276,
      "guid": 2277,
      "valu": 2278,
      "advant": 2279,
      "covered": 2280,
      "Mr": 2281,
      "ju": 2282,
      "associ": 2283,
      "ilt": 2284,
      "urt": 2285,
      "mention": 2286,
      "ister": 2287,
      "provided": 2288,
      "called": 2289,
      "emotions": 2290,
      "Have": 2291,
      "Str": 2292,
      "Te": 2293,
      "gard": 2294,
      "rates": 2295,
      "ert": 2296,
      "refer": 2297,
      "ouch": 2298,
      "alg": 2299,
      "iment": 2300,
      "white": 2301,
      "plans": 2302,
      "dog": 2303,
      "final": 2304,
      "studies": 2305,
      "visual": 2306,
      "555_555": 2307,
      "quickly": 2308,
      "comprehensive": 2309,
      "remind": 2310,
      "began": 2311,
      "behind": 2312,
      "extra": 2313,
      "Act": 2314,
      "ai": 2315,
      "rate": 2316,
      "orig": 2317,
      "traffic": 2318,
      "fee": 2319,
      "myself": 2320,
      "depend": 2321,
      "Provide": 2322,
      "gas": 2323,
      "ri": 2324,
      "simple": 2325,
      "achie": 2326,
      "efforts": 2327,
      "whole": 2328,
      "office": 2329,
      "region": 2330,
      "suggestions": 2331,
      "involved": 2332,
      "method": 2333,
      "multiple": 2334,
      "Cons": 2335,
      "Ke": 2336,
      "hor": 2337,
      "mid": 2338,
      "source": 2339,
      "cean": 2340,
      "trip": 2341,
      "commer": 2342,
      "drive": 2343,
      "minim": 2344,
      "communities": 2345,
      "guide": 2346,
      "recommendations": 2347,
      "applications": 2348,
      "questions": 2349,
      "lines": 2350,
      "luck": 2351,
      "ru": 2352,
      "saf": 2353,
      "recor": 2354,
      "items": 2355,
      "model": 2356,
      "const": 2357,
      "confl": 2358,
      "ests": 2359,
      "texture": 2360,
      "implementing": 2361,
      "cases": 2362,
      "particularly": 2363,
      "dom": 2364,
      "ease": 2365,
      "innov": 2366,
      "altern": 2367,
      "leave": 2368,
      "ird": 2369,
      "serve": 2370,
      "required": 2371,
      "message": 2372,
      "temperature": 2373,
      "tren": 2374,
      "ufact": 2375,
      "feature": 2376,
      "emotional": 2377,
      "scient": 2378,
      "American": 2379,
      "AP": 2380,
      "scre": 2381,
      "insp": 2382,
      "chann": 2383,
      "astic": 2384,
      "answ": 2385,
      "buy": 2386,
      "purpose": 2387,
      "doesn": 2388,
      "fire": 2389,
      "itation": 2390,
      "maj": 2391,
      "outside": 2392,
      "izes": 2393,
      "istic": 2394,
      "attention": 2395,
      "challenging": 2396,
      "expected": 2397,
      "recogn": 2398,
      "awareness": 2399,
      "ff": 2400,
      "four": 2401,
      "tur": 2402,
      "cep": 2403,
      "initi": 2404,
      "quantum": 2405,
      "Co": 2406,
      "bread": 2407,
      "nal": 2408,
      "ters": 2409,
      "partners": 2410,
      "manage": 2411,
      "productivity": 2412,
      "insights": 2413,
      "liter": 2414,
      "cells": 2415,
      "platform": 2416,
      "platforms": 2417,
      "income": 2418,
      "section": 2419,
      "useum": 2420,
      "green": 2421,
      "lands": 2422,
      "transform": 2423,
      "smooth": 2424,
      "16": 2425,
      "De": 2426,
      "Euro": 2427,
      "Per": 2428,
      "dough": 2429,
      "hon": 2430,
      "wide": 2431,
      "yet": 2432,
      "amount": 2433,
      "olive": 2434,
      "trade": 2435,
      "means": 2436,
      "early": 2437,
      "ength": 2438,
      "surround": 2439,
      "interested": 2440,
      "mission": 2441,
      "question": 2442,
      "pretty": 2443,
      "pecially": 2444,
      "bar": 2445,
      "cot": 2446,
      "hes": 2447,
      "rics": 2448,
      "scal": 2449,
      "ining": 2450,
      "atic": 2451,
      "chat": 2452,
      "eless": 2453,
      "ulation": 2454,
      "wasn": 2455,
      "priv": 2456,
      "craf": 2457,
      "identity": 2458,
      "happened": 2459,
      "improving": 2460,
      "Europe": 2461,
      "Car": 2462,
      "Mon": 2463,
      "Med": 2464,
      "iency": 2465,
      "ses": 2466,
      "rec": 2467,
      "onic": 2468,
      "especially": 2469,
      "ago": 2470,
      "emic": 2471,
      "afford": 2472,
      "practical": 2473,
      "faced": 2474,
      "video": 2475,
      "origin": 2476,
      "Afr": 2477,
      "Hel": 2478,
      "cel": 2479,
      "flo": 2480,
      "mag": 2481,
      "eds": 2482,
      "chop": 2483,
      "apart": 2484,
      "medical": 2485,
      "impress": 2486,
      "relig": 2487,
      "deliver": 2488,
      "advance": 2489,
      "efficient": 2490,
      "CO": 2491,
      "bag": 2492,
      "baking": 2493,
      "ouble": 2494,
      "offee": 2495,
      "verse": 2496,
      "demon": 2497,
      "addition": 2498,
      "ology": 2499,
      "delicious": 2500,
      "projects": 2501,
      "pieces": 2502,
      "Once": 2503,
      "________": 2504,
      "gratitude": 2505,
      "farm": 2506,
      "matter": 2507,
      "sed": 2508,
      "site": 2509,
      "yal": 2510,
      "icated": 2511,
      "select": 2512,
      "ager": 2513,
      "near": 2514,
      "mechan": 2515,
      "itect": 2516,
      "display": 2517,
      "themselves": 2518,
      "node": 2519,
      "backup": 2520,
      "political": 2521,
      "digital": 2522,
      "Consider": 2523,
      "Devel": 2524,
      "Mar": 2525,
      "match": 2526,
      "pal": 2527,
      "uate": 2528,
      "yond": 2529,
      "advert": 2530,
      "agree": 2531,
      "ials": 2532,
      "aster": 2533,
      "asted": 2534,
      "goal": 2535,
      "aff": 2536,
      "collect": 2537,
      "descr": 2538,
      "developing": 2539,
      "easier": 2540,
      "investment": 2541,
      "Dis": 2542,
      "Pre": 2543,
      "ires": 2544,
      "na": 2545,
      "nor": 2546,
      "exist": 2547,
      "loss": 2548,
      "therap": 2549,
      "learned": 2550,
      "University": 2551,
      "transportation": 2552,
      "AX": 2553,
      "xim": 2554,
      "ank": 2555,
      "ules": 2556,
      "frame": 2557,
      "sho": 2558,
      "regions": 2559,
      "glass": 2560,
      "listen": 2561,
      "beauty": 2562,
      "campaigns": 2563,
      "treatment": 2564,
      "Develop": 2565,
      "frequ": 2566,
      "link": 2567,
      "nature": 2568,
      "anx": 2569,
      "conclusion": 2570,
      "critical": 2571,
      "manufact": 2572,
      "\";": 2573,
      "iet": 2574,
      "pet": 2575,
      "ley": 2576,
      "beyond": 2577,
      "coach": 2578,
      "party": 2579,
      "phone": 2580,
      "activity": 2581,
      "influenc": 2582,
      "similar": 2583,
      "science": 2584,
      "Av": 2585,
      "coffee": 2586,
      "mel": 2587,
      "tic": 2588,
      "sem": 2589,
      "ows": 2590,
      "olution": 2591,
      "consum": 2592,
      "resil": 2593,
      "web": 2594,
      "index": 2595,
      "creative": 2596,
      "dates": 2597,
      "brea": 2598,
      "install": 2599,
      "United": 2600,
      "application": 2601,
      "excited": 2602,
      "half": 2603,
      "Alex": 2604,
      "vivid": 2605,
      "alone": 2606,
      "ctions": 2607,
      "worked": 2608,
      "speak": 2609,
      "international": 2610,
      "thank": 2611,
      "everyone": 2612,
      "employee": 2613,
      "balance": 2614,
      "major": 2615,
      "Now": 2616,
      "rough": 2617,
      "sil": 2618,
      "stre": 2619,
      "ases": 2620,
      "fra": 2621,
      "overcome": 2622,
      "cient": 2623,
      "higher": 2624,
      "longer": 2625,
      "implemented": 2626,
      "policies": 2627,
      "feedback": 2628,
      "sometimes": 2629,
      "aspect": 2630,
      "image": 2631,
      "comfor": 2632,
      "terms": 2633,
      "earch": 2634,
      "engine": 2635,
      "virt": 2636,
      "problems": 2637,
      "agram": 2638,
      "global": 2639,
      "eco": 2640,
      "inspir": 2641,
      "eter": 2642,
      "tried": 2643,
      "quite": 2644,
      "architect": 2645,
      "regard": 2646,
      "easily": 2647,
      "handle": 2648,
      "jobs": 2649,
      "birth": 2650,
      "Market": 2651,
      "25": 2652,
      "tics": 2653,
      "inc": 2654,
      "enge": 2655,
      "separ": 2656,
      "util": 2657,
      "worth": 2658,
      "firm": 2659,
      "cript": 2660,
      "frastructure": 2661,
      "17": 2662,
      "Sm": 2663,
      "late": 2664,
      "pul": 2665,
      "press": 2666,
      "tough": 2667,
      "force": 2668,
      "flour": 2669,
      "dry": 2670,
      "medium": 2671,
      "built": 2672,
      "personality": 2673,
      "powerful": 2674,
      "employ": 2675,
      "organization": 2676,
      "single": 2677,
      "weeks": 2678,
      "orders": 2679,
      "Finally": 2680,
      "habit": 2681,
      "usually": 2682,
      "safety": 2683,
      "Mex": 2684,
      "SE": 2685,
      "afr": 2686,
      "push": 2687,
      "vious": 2688,
      "wish": 2689,
      "aling": 2690,
      "excell": 2691,
      "consu": 2692,
      "contact": 2693,
      "expert": 2694,
      "Hey": 2695,
      "surface": 2696,
      "generate": 2697,
      "experienced": 2698,
      "limited": 2699,
      "thinking": 2700,
      "Take": 2701,
      "carr": 2702,
      "lat": 2703,
      "pick": 2704,
      "rad": 2705,
      "soup": 2706,
      "almost": 2707,
      "ateful": 2708,
      "price": 2709,
      "nothing": 2710,
      "faction": 2711,
      "decision": 2712,
      "economy": 2713,
      "patterns": 2714,
      "whether": 2715,
      "Su": 2716,
      "five": 2717,
      "ibe": 2718,
      "later": 2719,
      "slow": 2720,
      "remain": 2721,
      "iday": 2722,
      "cold": 2723,
      "desired": 2724,
      "engage": 2725,
      "background": 2726,
      "Social": 2727,
      "blog": 2728,
      "asks": 2729,
      "vegan": 2730,
      "respect": 2731,
      "ipes": 2732,
      "lood": 2733,
      "surpr": 2734,
      "career": 2735,
      "clothing": 2736,
      "belief": 2737,
      "limit": 2738,
      "soft": 2739,
      "eggs": 2740,
      "associated": 2741,
      "chopped": 2742,
      "afraid": 2743,
      "!!": 2744,
      "II": 2745,
      "mountain": 2746,
      "rist": 2747,
      "vey": 2748,
      "sugar": 2749,
      "poem": 2750,
      "complete": 2751,
      "\",": 2752,
      "AT": 2753,
      "Based": 2754,
      "Gener": 2755,
      "Sy": 2756,
      "dest": 2757,
      "fix": 2758,
      "length": 2759,
      "rich": 2760,
      "tables": 2761,
      "onto": 2762,
      "entire": 2763,
      "themes": 2764,
      "taken": 2765,
      "syn": 2766,
      "bled": 2767,
      "reading": 2768,
      "personalized": 2769,
      "encourage": 2770,
      "Despite": 2771,
      "exercise": 2772,
      "article": 2773,
      "million": 2774,
      "families": 2775,
      "cou": 2776,
      "eye": 2777,
      "hib": 2778,
      "oven": 2779,
      "ocean": 2780,
      "scr": 2781,
      "remove": 2782,
      "movie": 2783,
      "ots": 2784,
      "istics": 2785,
      "Ind": 2786,
      "realized": 2787,
      "histor": 2788,
      "opportunity": 2789,
      "games": 2790,
      "purchase": 2791,
      "satisfaction": 2792,
      "izza": 2793,
      "Nor": 2794,
      "tree": 2795,
      "vine": 2796,
      "chem": 2797,
      "meat": 2798,
      "grand": 2799,
      "ological": 2800,
      "relax": 2801,
      "Remember": 2802,
      "memories": 2803,
      "accessible": 2804,
      "devices": 2805,
      "hosp": 2806,
      "preferences": 2807,
      "homes": 2808,
      "AR": 2809,
      "Bu": 2810,
      "His": 2811,
      "Tw": 2812,
      "Ve": 2813,
      "dle": 2814,
      "eat": 2815,
      "fre": 2816,
      "infrastructure": 2817,
      "orith": 2818,
      "heard": 2819,
      "grateful": 2820,
      "States": 2821,
      "save": 2822,
      "depth": 2823,
      "Cont": 2824,
      "cycl": 2825,
      "focused": 2826,
      "algorith": 2827,
      "channels": 2828,
      "cum": 2829,
      "touch": 2830,
      "ames": 2831,
      "elling": 2832,
      "greater": 2833,
      "choice": 2834,
      "letter": 2835,
      "breath": 2836,
      "numbers": 2837,
      "passage": 2838,
      "fields": 2839,
      "college": 2840,
      "efficiency": 2841,
      "distribut": 2842,
      "mentioned": 2843,
      "comfortable": 2844,
      "cise": 2845,
      "song": 2846,
      "tour": 2847,
      "ino": 2848,
      "atory": 2849,
      "ene": 2850,
      "stac": 2851,
      "irt": 2852,
      "acks": 2853,
      "authen": 2854,
      "smart": 2855,
      "leaders": 2856,
      "Eng": 2857,
      "challenge": 2858,
      "promoting": 2859,
      "network": 2860,
      "solutely": 2861,
      "description": 2862,
      "sequences": 2863,
      "crucial": 2864,
      "BR": 2865,
      "Face": 2866,
      "cast": 2867,
      "gone": 2868,
      "hers": 2869,
      "sort": 2870,
      "inj": 2871,
      "ided": 2872,
      "colate": 2873,
      "box": 2874,
      "finally": 2875,
      "path": 2876,
      "sustainability": 2877,
      "flowers": 2878,
      "bots": 2879,
      "recently": 2880,
      "visitors": 2881,
      "leaves": 2882,
      "voice": 2883,
      "Max": 2884,
      "gift": 2885,
      "nia": 2886,
      "park": 2887,
      "iter": 2888,
      "itely": 2889,
      "iction": 2890,
      "irr": 2891,
      "lock": 2892,
      "ulate": 2893,
      "played": 2894,
      "guess": 2895,
      "offering": 2896,
      "influence": 2897,
      "spirit": 2898,
      "written": 2899,
      "cryp": 2900,
      "period": 2901,
      "11": 2902,
      "danger": 2903,
      "fight": 2904,
      "kers": 2905,
      "ware": 2906,
      "zz": 2907,
      "ades": 2908,
      "acqu": 2909,
      "urch": 2910,
      "train": 2911,
      "Who": 2912,
      "colon": 2913,
      "obstac": 2914,
      "powder": 2915,
      "hydro": 2916,
      "relationship": 2917,
      "Facebook": 2918,
      "dinner": 2919,
      "gent": 2920,
      "hic": 2921,
      "ians": 2922,
      "atmo": 2923,
      "accur": 2924,
      "conduct": 2925,
      "resist": 2926,
      "esty": 2927,
      "flav": 2928,
      "spect": 2929,
      "Another": 2930,
      "developed": 2931,
      "stop": 2932,
      "instance": 2933,
      "filled": 2934,
      "Chinese": 2935,
      "definitely": 2936,
      "adapt": 2937,
      "garden": 2938,
      "trends": 2939,
      "atmosp": 2940,
      "Fe": 2941,
      "Go": 2942,
      "Set": 2943,
      "base": 2944,
      "gle": 2945,
      "iety": 2946,
      "sched": 2947,
      "isn": 2948,
      "seems": 2949,
      "ado": 2950,
      "ither": 2951,
      "ultim": 2952,
      "meal": 2953,
      "upon": 2954,
      "format": 2955,
      "assess": 2956,
      "cape": 2957,
      "offic": 2958,
      "Health": 2959,
      "version": 2960,
      "glad": 2961,
      "running": 2962,
      "receive": 2963,
      "incorporate": 2964,
      "cuis": 2965,
      "figure": 2966,
      "appreciate": 2967,
      "excellent": 2968,
      "ID": 2969,
      "Op": 2970,
      "fas": 2971,
      "wild": 2972,
      "vehic": 2973,
      "anyone": 2974,
      "wrong": 2975,
      "industries": 2976,
      "venue": 2977,
      "hands": 2978,
      "expand": 2979,
      "courage": 2980,
      "summer": 2981,
      "filling": 2982,
      "juice": 2983,
      "vinegar": 2984,
      "giving": 2985,
      "eral": 2986,
      "onion": 2987,
      "orrow": 2988,
      "secre": 2989,
      "fulness": 2990,
      "extre": 2991,
      "included": 2992,
      "advice": 2993,
      "growing": 2994,
      "marize": 2995,
      "property": 2996,
      "meaning": 2997,
      "collection": 2998,
      "optimize": 2999,
      "virtual": 3000,
      "LL": 3001,
      "RE": 3002,
      "Red": 3003,
      "dance": 3004,
      "fa": 3005,
      "ker": 3006,
      "museum": 3007,
      "spo": 3008,
      "wid": 3009,
      "third": 3010,
      "rect": 3011,
      "esome": 3012,
      "ale": 3013,
      "urban": 3014,
      "decor": 3015,
      "peace": 3016,
      "brought": 3017,
      "highly": 3018,
      "lightly": 3019,
      "belie": 3020,
      "thoughts": 3021,
      "iveness": 3022,
      "operations": 3023,
      "pasta": 3024,
      "affected": 3025,
      "Research": 3026,
      "routine": 3027,
      "China": 3028,
      "record": 3029,
      "latest": 3030,
      "Ok": 3031,
      "ties": 3032,
      "reality": 3033,
      "chance": 3034,
      "decre": 3035,
      "Then": 3036,
      "disrup": 3037,
      "Christ": 3038,
      "impacts": 3039,
      "Engl": 3040,
      "cooked": 3041,
      "aughter": 3042,
      "commerce": 3043,
      "alternative": 3044,
      "pict": 3045,
      "tight": 3046,
      "stick": 3047,
      "staff": 3048,
      "ches": 3049,
      "mod": 3050,
      "mother": 3051,
      "log": 3052,
      "acad": 3053,
      "hash": 3054,
      "eful": 3055,
      "interview": 3056,
      "serving": 3057,
      "standard": 3058,
      "maybe": 3059,
      "expensive": 3060,
      "looked": 3061,
      "implementation": 3062,
      "asked": 3063,
      "situation": 3064,
      "anxiety": 3065,
      "herself": 3066,
      "Bre": 3067,
      "Every": 3068,
      "Gu": 3069,
      "NE": 3070,
      "OK": 3071,
      "cat": 3072,
      "cular": 3073,
      "catch": 3074,
      "mic": 3075,
      "rain": 3076,
      "ali": 3077,
      "ils": 3078,
      "ads": 3079,
      "verage": 3080,
      "exhib": 3081,
      "haven": 3082,
      "output": 3083,
      "interactive": 3084,
      "reader": 3085,
      "players": 3086,
      "paid": 3087,
      "poll": 3088,
      "turned": 3089,
      "advanced": 3090,
      "changing": 3091,
      "transfer": 3092,
      "competition": 3093,
      "truly": 3094,
      "woman": 3095,
      "Hello": 3096,
      "flavors": 3097,
      "cuisine": 3098,
      "fascin": 3099,
      "National": 3100,
      "dol": 3101,
      "fail": 3102,
      "ients": 3103,
      "sen": 3104,
      "uge": 3105,
      "wife": 3106,
      "ators": 3107,
      "outh": 3108,
      "icy": 3109,
      "compost": 3110,
      "consequences": 3111,
      "calcul": 3112,
      "inside": 3113,
      "respond": 3114,
      "shows": 3115,
      "depending": 3116,
      "graphy": 3117,
      "requirements": 3118,
      "clients": 3119,
      "seemed": 3120,
      "launch": 3121,
      "exploring": 3122,
      "atmosphere": 3123,
      "Fir": 3124,
      "flex": 3125,
      "ronic": 3126,
      "tasks": 3127,
      "wel": 3128,
      "thick": 3129,
      "inary": 3130,
      "ancient": 3131,
      "chair": 3132,
      "imm": 3133,
      "Int": 3134,
      "Its": 3135,
      "goods": 3136,
      "solution": 3137,
      "playing": 3138,
      "famous": 3139,
      "benefit": 3140,
      "element": 3141,
      "hydr": 3142,
      "issue": 3143,
      "device": 3144,
      "According": 3145,
      "valuable": 3146,
      "Lo": 3147,
      "lin": 3148,
      "rather": 3149,
      "threat": 3150,
      "images": 3151,
      "ote": 3152,
      "illustr": 3153,
      "spend": 3154,
      "gets": 3155,
      "counts": 3156,
      "ios": 3157,
      "passed": 3158,
      "environments": 3159,
      "dynam": 3160,
      "weekend": 3161,
      "exercises": 3162,
      "storage": 3163,
      "religious": 3164,
      "resilience": 3165,
      "bill": 3166,
      "bell": 3167,
      "fine": 3168,
      "gold": 3169,
      "kid": 3170,
      "reason": 3171,
      "Intern": 3172,
      "owners": 3173,
      "perspect": 3174,
      "larger": 3175,
      "emphas": 3176,
      "establish": 3177,
      "conflict": 3178,
      "screen": 3179,
      "24": 3180,
      "Time": 3181,
      "told": 3182,
      "tracking": 3183,
      "outdoor": 3184,
      "qual": 3185,
      "spending": 3186,
      "disorders": 3187,
      "difference": 3188,
      "powers": 3189,
      "carbon": 3190,
      "Conclusion": 3191,
      "allowing": 3192,
      "movement": 3193,
      "subst": 3194,
      "Commun": 3195,
      "sliced": 3196,
      "navigate": 3197,
      "concerns": 3198,
      "answer": 3199,
      "60": 3200,
      "EN": 3201,
      "Many": 3202,
      "Would": 3203,
      "ging": 3204,
      "ged": 3205,
      "psy": 3206,
      "script": 3207,
      "igation": 3208,
      "exe": 3209,
      "hair": 3210,
      "spices": 3211,
      "held": 3212,
      "workshop": 3213,
      "bright": 3214,
      "previous": 3215,
      "ibilities": 3216,
      "tomorrow": 3217,
      "partner": 3218,
      "correct": 3219,
      "suppl": 3220,
      "served": 3221,
      "occur": 3222,
      "regularly": 3223,
      "Instagram": 3224,
      "prepared": 3225,
      "World": 3226,
      "continued": 3227,
      "credit": 3228,
      "recipes": 3229,
      "Mo": 3230,
      "Pe": 3231,
      "Van": 3232,
      "crow": 3233,
      "div": 3234,
      "either": 3235,
      "pace": 3236,
      "intr": 3237,
      "thes": 3238,
      "immed": 3239,
      "olar": 3240,
      "loved": 3241,
      "concise": 3242,
      "Instructions": 3243,
      "cris": 3244,
      "speed": 3245,
      "manip": 3246,
      "incred": 3247,
      "talking": 3248,
      "classes": 3249,
      "connection": 3250,
      "videos": 3251,
      "involves": 3252,
      "reported": 3253,
      "square": 3254,
      "scale": 3255,
      "AM": 3256,
      "Bell": 3257,
      "Mic": 3258,
      "lon": 3259,
      "tit": 3260,
      "wed": 3261,
      "yog": 3262,
      "instruction": 3263,
      "amic": 3264,
      "workers": 3265,
      "disease": 3266,
      "corn": 3267,
      "produce": 3268,
      "communicate": 3269,
      "starting": 3270,
      "offered": 3271,
      "changed": 3272,
      "Comp": 3273,
      "release": 3274,
      "improved": 3275,
      "itchen": 3276,
      "incorporating": 3277,
      "constant": 3278,
      "scientific": 3279,
      "therapy": 3280,
      "MS": 3281,
      "bul": 3282,
      "gel": 3283,
      "iers": 3284,
      "pizza": 3285,
      "tor": 3286,
      "agric": 3287,
      "acts": 3288,
      "ounds": 3289,
      "species": 3290,
      "lights": 3291,
      "Reg": 3292,
      "Stud": 3293,
      "followers": 3294,
      "organic": 3295,
      "located": 3296,
      "distance": 3297,
      "reliable": 3298,
      "machine": 3299,
      "agricult": 3300,
      "45": 3301,
      "Cor": 3302,
      "Hop": 3303,
      "RO": 3304,
      "TAX": 3305,
      "ky": 3306,
      "lay": 3307,
      "sad": 3308,
      "vous": 3309,
      "lection": 3310,
      "forget": 3311,
      "cancer": 3312,
      "appoint": 3313,
      "sharing": 3314,
      "prim": 3315,
      "docu": 3316,
      "Where": 3317,
      "blue": 3318,
      "imply": 3319,
      "readers": 3320,
      "feelings": 3321,
      "standing": 3322,
      "requires": 3323,
      "teams": 3324,
      "exciting": 3325,
      "analytics": 3326,
      "advertising": 3327,
      "academic": 3328,
      "Fo": 3329,
      "Using": 3330,
      "dip": 3331,
      "eper": 3332,
      "gave": 3333,
      "host": 3334,
      "ivery": 3335,
      "ored": 3336,
      "rush": 3337,
      "scare": 3338,
      "atively": 3339,
      "stories": 3340,
      "isions": 3341,
      "etry": 3342,
      "uten": 3343,
      "demo": 3344,
      "Through": 3345,
      "apan": 3346,
      "weak": 3347,
      "oogle": 3348,
      "ounter": 3349,
      "typ": 3350,
      "awesome": 3351,
      "suring": 3352,
      "planning": 3353,
      "complet": 3354,
      "promotion": 3355,
      "decided": 3356,
      "announ": 3357,
      "properly": 3358,
      "determine": 3359,
      "struggle": 3360,
      "responsible": 3361,
      "leaving": 3362,
      "remote": 3363,
      "Japan": 3364,
      "Will": 3365,
      "hous": 3366,
      "kitchen": 3367,
      "slightly": 3368,
      "era": 3369,
      "aries": 3370,
      "exact": 3371,
      "unte": 3372,
      "acc": 3373,
      "feet": 3374,
      "core": 3375,
      "achel": 3376,
      "encounter": 3377,
      "ension": 3378,
      "foreign": 3379,
      "depress": 3380,
      "summarize": 3381,
      "condition": 3382,
      "posts": 3383,
      "combination": 3384,
      "appear": 3385,
      "aims": 3386,
      "fitness": 3387,
      "dressing": 3388,
      "brown": 3389,
      "heavy": 3390,
      "initiatives": 3391,
      "obstacles": 3392,
      "First": 3393,
      "Each": 3394,
      "dur": 3395,
      "dated": 3396,
      "fair": 3397,
      "hour": 3398,
      "sets": 3399,
      "loyal": 3400,
      "acid": 3401,
      "wear": 3402,
      "spread": 3403,
      "helping": 3404,
      "iber": 3405,
      "driving": 3406,
      "detect": 3407,
      "marks": 3408,
      "wellness": 3409,
      "sensors": 3410,
      "bike": 3411,
      "nuts": 3412,
      "client": 3413,
      "imagery": 3414,
      "books": 3415,
      "electricity": 3416,
      "completely": 3417,
      "Cam": 3418,
      "During": 3419,
      "ahead": 3420,
      "da": 3421,
      "dd": 3422,
      "fab": 3423,
      "mat": 3424,
      "ov": 3425,
      "ries": 3426,
      "tact": 3427,
      "vest": 3428,
      "ena": 3429,
      "itors": 3430,
      "comfort": 3431,
      "ults": 3432,
      "oph": 3433,
      "reser": 3434,
      "outcomes": 3435,
      "evidence": 3436,
      "tomatoes": 3437,
      "experiment": 3438,
      "Choose": 3439,
      "player": 3440,
      "insight": 3441,
      "nervous": 3442,
      "password": 3443,
      "allowed": 3444,
      "appropr": 3445,
      "waiting": 3446,
      "measures": 3447,
      "hotel": 3448,
      "received": 3449,
      "consumer": 3450,
      "City": 3451,
      "God": 3452,
      "Google": 3453,
      "cate": 3454,
      "furn": 3455,
      "kn": 3456,
      "nes": 3457,
      "nel": 3458,
      "sess": 3459,
      "ancing": 3460,
      "argu": 3461,
      "ison": 3462,
      "chil": 3463,
      "beans": 3464,
      "lose": 3465,
      "fear": 3466,
      "teas": 3467,
      "goes": 3468,
      "pred": 3469,
      "eval": 3470,
      "colum": 3471,
      "presents": 3472,
      "download": 3473,
      "below": 3474,
      "panels": 3475,
      "baby": 3476,
      "suitable": 3477,
      "assistance": 3478,
      "neighbor": 3479,
      "horr": 3480,
      "aspects": 3481,
      "architecture": 3482,
      "Marketing": 3483,
      "beliefs": 3484,
      "Ener": 3485,
      "Given": 3486,
      "Jo": 3487,
      "More": 3488,
      "bum": 3489,
      "ht": 3490,
      "lu": 3491,
      "lor": 3492,
      "mary": 3493,
      "nic": 3494,
      "sand": 3495,
      "enance": 3496,
      "isol": 3497,
      "asons": 3498,
      "plants": 3499,
      "artists": 3500,
      "herbs": 3501,
      "compon": 3502,
      "cks": 3503,
      "speaking": 3504,
      "central": 3505,
      "chocolate": 3506,
      "ifying": 3507,
      "camp": 3508,
      "subject": 3509,
      "rooms": 3510,
      "professionals": 3511,
      "bably": 3512,
      "fuel": 3513,
      "collaboration": 3514,
      "Techn": 3515,
      "Keep": 3516,
      "private": 3517,
      "40": 3518,
      "Gre": 3519,
      "gather": 3520,
      "rice": 3521,
      "wine": 3522,
      "aly": 3523,
      "ental": 3524,
      "erson": 3525,
      "moving": 3526,
      "dead": 3527,
      "actually": 3528,
      "sparen": 3529,
      "useful": 3530,
      "boss": 3531,
      "parts": 3532,
      "technique": 3533,
      "vision": 3534,
      "presence": 3535,
      "delivery": 3536,
      "cars": 3537,
      "capture": 3538,
      "occas": 3539,
      "meeting": 3540,
      "packaging": 3541,
      "considered": 3542,
      "From": 3543,
      "graduate": 3544,
      "craft": 3545,
      "describe": 3546,
      "Company": 3547,
      "Energy": 3548,
      "Bar": 3549,
      "Jane": 3550,
      "Out": 3551,
      "Ph": 3552,
      "ST": 3553,
      "Spr": 3554,
      "TV": 3555,
      "blood": 3556,
      "cro": 3557,
      "fing": 3558,
      "hi": 3559,
      "narr": 3560,
      "sam": 3561,
      "tun": 3562,
      "itary": 3563,
      "ays": 3564,
      "whis": 3565,
      "maxim": 3566,
      "Inter": 3567,
      "effort": 3568,
      "evol": 3569,
      "meditation": 3570,
      "informative": 3571,
      "nesses": 3572,
      "valid": 3573,
      "pressure": 3574,
      "breaking": 3575,
      "maintenance": 3576,
      "successfully": 3577,
      "participation": 3578,
      "contribute": 3579,
      "computer": 3580,
      "errors": 3581,
      "basic": 3582,
      "existing": 3583,
      "27": 3584,
      "500": 3585,
      "Ca": 3586,
      "Great": 3587,
      "Jan": 3588,
      "Sim": 3589,
      "cross": 3590,
      "daughter": 3591,
      "mis": 3592,
      "py": 3593,
      "vac": 3594,
      "replace": 3595,
      "iture": 3596,
      "edom": 3597,
      "stun": 3598,
      "isms": 3599,
      "degre": 3600,
      "terday": 3601,
      "worry": 3602,
      "ava": 3603,
      "command": 3604,
      "technical": 3605,
      "surance": 3606,
      "effectiveness": 3607,
      "planet": 3608,
      "significantly": 3609,
      "generated": 3610,
      "label": 3611,
      "flower": 3612,
      "sensory": 3613,
      "nutr": 3614,
      "women": 3615,
      "attract": 3616,
      "damage": 3617,
      "fruit": 3618,
      "achieving": 3619,
      "\".": 3620,
      "Data": 3621,
      "Min": 3622,
      "cit": 3623,
      "honey": 3624,
      "iar": 3625,
      "lol": 3626,
      "rom": 3627,
      "tick": 3628,
      "van": 3629,
      "topp": 3630,
      "stream": 3631,
      "arter": 3632,
      "becoming": 3633,
      "usiness": 3634,
      "concept": 3635,
      "resolution": 3636,
      "aps": 3637,
      "artwork": 3638,
      "umbled": 3639,
      "willing": 3640,
      "guests": 3641,
      "largest": 3642,
      "showcase": 3643,
      "summary": 3644,
      "recommended": 3645,
      "shared": 3646,
      "says": 3647,
      "transparen": 3648,
      "dreams": 3649,
      "original": 3650,
      "birthday": 3651,
      "80": 3652,
      "Avery": 3653,
      "Bo": 3654,
      "DN": 3655,
      "High": 3656,
      "send": 3657,
      "six": 3658,
      "ina": 3659,
      "ensuring": 3660,
      "suf": 3661,
      "ivil": 3662,
      "shown": 3663,
      "strange": 3664,
      "Incl": 3665,
      "Ingre": 3666,
      "justice": 3667,
      "skill": 3668,
      "designs": 3669,
      "significance": 3670,
      "passion": 3671,
      "minute": 3672,
      "walking": 3673,
      "Absolutely": 3674,
      "influencers": 3675,
      "expertise": 3676,
      "authent": 3677,
      "Ingredients": 3678,
      "SS": 3679,
      "iately": 3680,
      "mist": 3681,
      "mass": 3682,
      "snow": 3683,
      "erous": 3684,
      "ened": 3685,
      "cham": 3686,
      "exchange": 3687,
      "moist": 3688,
      "convey": 3689,
      "kept": 3690,
      "ghost": 3691,
      "addiction": 3692,
      "diet": 3693,
      "finding": 3694,
      "buildings": 3695,
      "patients": 3696,
      "interests": 3697,
      "brands": 3698,
      "156": 3699,
      "157": 3700,
      "classic": 3701,
      "educational": 3702,
      "empty": 3703,
      "priorit": 3704,
      "street": 3705,
      "Introdu": 3706,
      "ER": 3707,
      "Ed": 3708,
      "IV": 3709,
      "LA": 3710,
      "Ne": 3711,
      "sir": 3712,
      "sight": 3713,
      "ana": 3714,
      "onist": 3715,
      "enab": 3716,
      "aran": 3717,
      "iling": 3718,
      "adop": 3719,
      "accept": 3720,
      "cannot": 3721,
      "antic": 3722,
      "plement": 3723,
      "bran": 3724,
      "prepar": 3725,
      "compared": 3726,
      "interact": 3727,
      "Ensure": 3728,
      "himself": 3729,
      "factor": 3730,
      "gluten": 3731,
      "risks": 3732,
      "iverse": 3733,
      "properties": 3734,
      "Offer": 3735,
      "struggling": 3736,
      "recovery": 3737,
      "situations": 3738,
      "queue": 3739,
      "reviews": 3740,
      "elessness": 3741,
      "advancements": 3742,
      "Bella": 3743,
      "categ": 3744,
      "Business": 3745,
      "IT": 3746,
      "batt": 3747,
      "hun": 3748,
      "tone": 3749,
      "reve": 3750,
      "revol": 3751,
      "theme": 3752,
      "omass": 3753,
      "sector": 3754,
      "seeds": 3755,
      "probably": 3756,
      "modif": 3757,
      "aces": 3758,
      "accompl": 3759,
      "conven": 3760,
      "ulations": 3761,
      "depart": 3762,
      "updates": 3763,
      "spot": 3764,
      "crust": 3765,
      "Canad": 3766,
      "encies": 3767,
      "serious": 3768,
      "boy": 3769,
      "blend": 3770,
      "curious": 3771,
      "Start": 3772,
      "specifically": 3773,
      "styles": 3774,
      "peppers": 3775,
      "shape": 3776,
      "tagonist": 3777,
      "motivated": 3778,
      "middle": 3779,
      "affordable": 3780,
      "manufacturing": 3781,
      "Generate": 3782,
      "extreme": 3783,
      "appropriate": 3784,
      "teaspoon": 3785,
      "Cus": 3786,
      "LE": 3787,
      "Pat": 3788,
      "bound": 3789,
      "barr": 3790,
      "double": 3791,
      "vation": 3792,
      "vill": 3793,
      "abuse": 3794,
      "protagonist": 3795,
      "ump": 3796,
      "Incre": 3797,
      "assign": 3798,
      "Angel": 3799,
      "lifesty": 3800,
      "diverse": 3801,
      "ski": 3802,
      "finish": 3803,
      "seeing": 3804,
      "Enter": 3805,
      "cultures": 3806,
      "general": 3807,
      "faces": 3808,
      "cups": 3809,
      "born": 3810,
      "menu": 3811,
      "Serve": 3812,
      "itutions": 3813,
      "demonstr": 3814,
      "farmers": 3815,
      "Custom": 3816,
      "Def": 3817,
      "batter": 3818,
      "hus": 3819,
      "iam": 3820,
      "je": 3821,
      "rome": 3822,
      "vas": 3823,
      "zing": 3824,
      "reput": 3825,
      "alian": 3826,
      "total": 3827,
      "poor": 3828,
      "caused": 3829,
      "Char": 3830,
      "funding": 3831,
      "charge": 3832,
      "pursu": 3833,
      "resulting": 3834,
      "watching": 3835,
      "----": 3836,
      "places": 3837,
      "emergency": 3838,
      "inspired": 3839,
      "partnership": 3840,
      "Africa": 3841,
      "crypto": 3842,
      "believed": 3843,
      "execut": 3844,
      "scared": 3845,
      "furniture": 3846,
      "authentication": 3847,
      "IC": 3848,
      "Lily": 3849,
      "Son": 3850,
      "Sam": 3851,
      "War": 3852,
      "eating": 3853,
      "father": 3854,
      "rap": 3855,
      "aters": 3856,
      "roasted": 3857,
      "beef": 3858,
      "idge": 3859,
      "sures": 3860,
      "whel": 3861,
      "ulner": 3862,
      "illing": 3863,
      "proud": 3864,
      "ideal": 3865,
      "updated": 3866,
      "discovered": 3867,
      "noon": 3868,
      "ensions": 3869,
      "finished": 3870,
      "tood": 3871,
      "potatoes": 3872,
      "topics": 3873,
      "tests": 3874,
      "connected": 3875,
      "participants": 3876,
      "fortun": 3877,
      "INT": 3878,
      "satisf": 3879,
      "tactics": 3880,
      "',": 3881,
      "AD": 3882,
      "Ap": 3883,
      "Cha": 3884,
      "Dep": 3885,
      "Val": 3886,
      "cand": 3887,
      "civil": 3888,
      "gun": 3889,
      "ption": 3890,
      "ti": 3891,
      "ugh": 3892,
      "ico": 3893,
      "etic": 3894,
      "extr": 3895,
      "agers": 3896,
      "uries": 3897,
      "tech": 3898,
      "cloud": 3899,
      "creatures": 3900,
      "overwhel": 3901,
      "Any": 3902,
      "Enjoy": 3903,
      "stock": 3904,
      "homemade": 3905,
      "scul": 3906,
      "childhood": 3907,
      "brother": 3908,
      "files": 3909,
      "struggles": 3910,
      "participate": 3911,
      "behavi": 3912,
      "okay": 3913,
      "automation": 3914,
      "advantage": 3915,
      "minimal": 3916,
      "European": 3917,
      "freedom": 3918,
      "dollar": 3919,
      "International": 3920,
      "depression": 3921,
      "ophie": 3922,
      "Include": 3923,
      "husband": 3924,
      "James": 3925,
      "Ow": 3926,
      "Sp": 3927,
      "Sophie": 3928,
      "diced": 3929,
      "fal": 3930,
      "rise": 3931,
      "simply": 3932,
      "arms": 3933,
      "immun": 3934,
      "iff": 3935,
      "universe": 3936,
      "oting": 3937,
      "Their": 3938,
      "death": 3939,
      "arts": 3940,
      "ifications": 3941,
      "compare": 3942,
      "drin": 3943,
      "parties": 3944,
      "backs": 3945,
      "sky": 3946,
      "visually": 3947,
      "evening": 3948,
      "leads": 3949,
      "attend": 3950,
      "smaller": 3951,
      "presentation": 3952,
      "submit": 3953,
      "filter": 3954,
      "involve": 3955,
      "named": 3956,
      "affects": 3957,
      "window": 3958,
      "initial": 3959,
      "volunte": 3960,
      "photos": 3961,
      "determined": 3962,
      "apartment": 3963,
      "dynamic": 3964,
      "typically": 3965,
      "stunning": 3966,
      "sculpt": 3967,
      "Mus": 3968,
      "Pol": 3969,
      "Rachel": 3970,
      "fat": 3971,
      "mas": 3972,
      "sides": 3973,
      "tive": 3974,
      "tast": 3975,
      "vary": 3976,
      "vulner": 3977,
      "inch": 3978,
      "ativity": 3979,
      "alive": 3980,
      "ederal": 3981,
      "ara": 3982,
      "arian": 3983,
      "icine": 3984,
      "elines": 3985,
      "iles": 3986,
      "sex": 3987,
      "vegg": 3988,
      "aced": 3989,
      "sole": 3990,
      "shar": 3991,
      "embr": 3992,
      "ellow": 3993,
      "duc": 3994,
      "brief": 3995,
      "grew": 3996,
      "series": 3997,
      "seeking": 3998,
      "lighting": 3999,
      "smell": 4000,
      "powered": 4001,
      "testing": 4002,
      "investing": 4003,
      "yesterday": 4004,
      "protein": 4005,
      "sports": 4006,
      "broth": 4007,
      "shopping": 4008,
      "holders": 4009,
      "currently": 4010,
      "symbols": 4011,
      "wonderful": 4012,
      "walls": 4013,
      "consistent": 4014,
      "survival": 4015,
      "hashtag": 4016,
      "fascinating": 4017,
      "sessions": 4018,
      "revolution": 4019,
      "Cent": 4020,
      "Gree": 4021,
      "Hi": 4022,
      "Jake": 4023,
      "KE": 4024,
      "NO": 4025,
      "Wal": 4026,
      "fro": 4027,
      "hate": 4028,
      "ius": 4029,
      "lent": 4030,
      "ram": 4031,
      "ule": 4032,
      "inse": 4033,
      "ester": 4034,
      "ork": 4035,
      "stir": 4036,
      "ilit": 4037,
      "proposed": 4038,
      "decl": 4039,
      "plastic": 4040,
      "percent": 4041,
      "creation": 4042,
      "empa": 4043,
      "sheet": 4044,
      "enses": 4045,
      "supporting": 4046,
      "join": 4047,
      "keeping": 4048,
      "metrics": 4049,
      "schools": 4050,
      "military": 4051,
      "Place": 4052,
      "Implement": 4053,
      "holiday": 4054,
      "raise": 4055,
      "guidance": 4056,
      "advantages": 4057,
      "innovative": 4058,
      "Black": 4059,
      "DA": 4060,
      "Further": 4061,
      "River": 4062,
      "Vis": 4063,
      "Year": 4064,
      "bone": 4065,
      "mates": 4066,
      "tsp": 4067,
      "inations": 4068,
      "repair": 4069,
      "ands": 4070,
      "stable": 4071,
      "actor": 4072,
      "shel": 4073,
      "emiss": 4074,
      "button": 4075,
      "spin": 4076,
      "spice": 4077,
      "ference": 4078,
      "brain": 4079,
      "crit": 4080,
      "carefully": 4081,
      "cultiv": 4082,
      "attack": 4083,
      "processes": 4084,
      "traditions": 4085,
      "cyber": 4086,
      "moments": 4087,
      "Pract": 4088,
      "journal": 4089,
      "beginning": 4090,
      "neighb": 4091,
      "immediately": 4092,
      "loyalty": 4093,
      "Introduction": 4094,
      "Cali": 4095,
      "Ge": 4096,
      "IA": 4097,
      "Was": 4098,
      "fans": 4099,
      "gon": 4100,
      "layer": 4101,
      "pun": 4102,
      "pages": 4103,
      "ride": 4104,
      "sac": 4105,
      "ini": 4106,
      "asy": 4107,
      "icks": 4108,
      "rock": 4109,
      "sea": 4110,
      "iger": 4111,
      "creates": 4112,
      "ellig": 4113,
      "ports": 4114,
      "taugh": 4115,
      "intellig": 4116,
      "poses": 4117,
      "wouldn": 4118,
      "impacted": 4119,
      "capital": 4120,
      "reports": 4121,
      "combine": 4122,
      "treatments": 4123,
      "dedicated": 4124,
      "legal": 4125,
      "figures": 4126,
      "commitment": 4127,
      "inspiration": 4128,
      "English": 4129,
      "behaviors": 4130,
      "taught": 4131,
      "?\"": 4132,
      "SV": 4133,
      "Ty": 4134,
      "ham": 4135,
      "ration": 4136,
      "rural": 4137,
      "uation": 4138,
      "yed": 4139,
      "thus": 4140,
      "insurance": 4141,
      "eries": 4142,
      "edge": 4143,
      "ama": 4144,
      "older": 4145,
      "ceed": 4146,
      "uss": 4147,
      "meant": 4148,
      "tea": 4149,
      "teen": 4150,
      "click": 4151,
      "creativity": 4152,
      "former": 4153,
      "spent": 4154,
      "discover": 4155,
      "ibly": 4156,
      "causes": 4157,
      "visited": 4158,
      "closer": 4159,
      "researchers": 4160,
      "facing": 4161,
      "decisions": 4162,
      "Exper": 4163,
      "maintaining": 4164,
      "viol": 4165,
      "responsibilities": 4166,
      "America": 4167,
      "terrible": 4168,
      "boost": 4169,
      "strengths": 4170,
      "Salt": 4171,
      "trees": 4172,
      "itute": 4173,
      "monitoring": 4174,
      "fruits": 4175,
      "istration": 4176,
      "tablespoon": 4177,
      "algorithm": 4178,
      "Engine": 4179,
      "widely": 4180,
      "psych": 4181,
      "veggies": 4182,
      "Bl": 4183,
      "Get": 4184,
      "Person": 4185,
      "Sub": 4186,
      "bsp": 4187,
      "fest": 4188,
      "fant": 4189,
      "ww": 4190,
      "iny": 4191,
      "ancy": 4192,
      "align": 4193,
      "stage": 4194,
      "idents": 4195,
      "tee": 4196,
      "shift": 4197,
      "lier": 4198,
      "oodles": 4199,
      "cker": 4200,
      "earth": 4201,
      "toms": 4202,
      "drink": 4203,
      "feels": 4204,
      "aked": 4205,
      "arrange": 4206,
      "thanks": 4207,
      "memory": 4208,
      "afternoon": 4209,
      "cycle": 4210,
      "facilit": 4211,
      "currency": 4212,
      "199": 4213,
      "confident": 4214,
      "aimed": 4215,
      "Instead": 4216,
      "computing": 4217,
      "error": 4218,
      "conversion": 4219,
      "determination": 4220,
      "established": 4221,
      "separate": 4222,
      "couple": 4223,
      "ultimately": 4224,
      "pollution": 4225,
      "perspective": 4226,
      "ovsk": 4227,
      "chili": 4228,
      "emissions": 4229,
      "Au": 4230,
      "BB": 4231,
      "Day": 4232,
      "Jenn": 4233,
      "Last": 4234,
      "Mind": 4235,
      "Sc": 4236,
      "cow": 4237,
      "cking": 4238,
      "echo": 4239,
      "rules": 4240,
      "sou": 4241,
      "tend": 4242,
      "tbsp": 4243,
      "thetic": 4244,
      "itage": 4245,
      "lemon": 4246,
      "enty": 4247,
      "fornia": 4248,
      "susp": 4249,
      "deeper": 4250,
      "prayer": 4251,
      "formation": 4252,
      "compass": 4253,
      "cious": 4254,
      "datab": 4255,
      "forest": 4256,
      "Read": 4257,
      "2018": 4258,
      "mindfulness": 4259,
      "learners": 4260,
      "movements": 4261,
      "paint": 4262,
      "opening": 4263,
      "corporate": 4264,
      "competitive": 4265,
      "See": 4266,
      "Design": 4267,
      "analyze": 4268,
      "animal": 4269,
      "teaching": 4270,
      "inspire": 4271,
      "literature": 4272,
      "welcome": 4273,
      "predict": 4274,
      "lifestyle": 4275,
      "ovskite": 4276,
      "Cut": 4277,
      "Law": 4278,
      "Ren": 4279,
      "hid": 4280,
      "jar": 4281,
      "lived": 4282,
      "mad": 4283,
      "marr": 4284,
      "ptoms": 4285,
      "ring": 4286,
      "uff": 4287,
      "wich": 4288,
      "ony": 4289,
      "theory": 4290,
      "stake": 4291,
      "stret": 4292,
      "lean": 4293,
      "chronic": 4294,
      "moon": 4295,
      "construction": 4296,
      "ulty": 4297,
      "otes": 4298,
      "artif": 4299,
      "indic": 4300,
      "prices": 4301,
      "doctor": 4302,
      "hero": 4303,
      "adds": 4304,
      "brush": 4305,
      "commonly": 4306,
      "compar": 4307,
      "novel": 4308,
      "posit": 4309,
      "rench": 4310,
      "rown": 4311,
      "died": 4312,
      "Yes_comma_": 4313,
      "reduced": 4314,
      "apply": 4315,
      "templ": 4316,
      "contrast": 4317,
      "influenced": 4318,
      "thorough": 4319,
      "bringing": 4320,
      "motivation": 4321,
      "String": 4322,
      "African": 4323,
      "floor": 4324,
      "efully": 4325,
      "Eric": 4326,
      "Educ": 4327,
      "Gar": 4328,
      "Hist": 4329,
      "IM": 4330,
      "Id": 4331,
      "Mix": 4332,
      "PN": 4333,
      "West": 4334,
      "gers": 4335,
      "lap": 4336,
      "lunch": 4337,
      "uk": 4338,
      "wave": 4339,
      "incent": 4340,
      "reasons": 4341,
      "itter": 4342,
      "usage": 4343,
      "proof": 4344,
      "agon": 4345,
      "wash": 4346,
      "feat": 4347,
      "shi": 4348,
      "proved": 4349,
      "desk": 4350,
      "interface": 4351,
      "fins": 4352,
      "invent": 4353,
      "functions": 4354,
      "request": 4355,
      "complement": 4356,
      "topic": 4357,
      "generation": 4358,
      "calling": 4359,
      "continues": 4360,
      "graphic": 4361,
      "returns": 4362,
      "vibr": 4363,
      "denly": 4364,
      "Emplo": 4365,
      "descriptive": 4366,
      "committed": 4367,
      "dangerous": 4368,
      "vehicles": 4369,
      "workshops": 4370,
      "column": 4371,
      "occasion": 4372,
      "California": 4373,
      "Del": 4374,
      "Ef": 4375,
      "IS": 4376,
      "Java": 4377,
      "Mc": 4378,
      "Pass": 4379,
      "San": 4380,
      "Scot": 4381,
      "UT": 4382,
      "ZE": 4383,
      "bought": 4384,
      "cs": 4385,
      "gment": 4386,
      "han": 4387,
      "ka": 4388,
      "ler": 4389,
      "rid": 4390,
      "yan": 4391,
      "erts": 4392,
      "represents": 4393,
      "edges": 4394,
      "iled": 4395,
      "moved": 4396,
      "aves": 4397,
      "crunch": 4398,
      "encing": 4399,
      "earlier": 4400,
      "engaged": 4401,
      "manager": 4402,
      "informed": 4403,
      "inkle": 4404,
      "century": 4405,
      "twist": 4406,
      "calend": 4407,
      "advent": 4408,
      "sitting": 4409,
      "Art": 4410,
      "marin": 4411,
      "Plan": 4412,
      "simpl": 4413,
      "stronger": 4414,
      "Share": 4415,
      "Yeah_comma_": 4416,
      "expression": 4417,
      "harsh": 4418,
      "Avoid": 4419,
      "secret": 4420,
      "faith": 4421,
      "decrease": 4422,
      "accident": 4423,
      "narrative": 4424,
      "22": 4425,
      "AS": 4426,
      "Cook": 4427,
      "Hy": 4428,
      "OM": 4429,
      "fly": 4430,
      "independ": 4431,
      "revenue": 4432,
      "orge": 4433,
      "album": 4434,
      "iring": 4435,
      "unexpected": 4436,
      "estim": 4437,
      "shad": 4438,
      "clar": 4439,
      "covery": 4440,
      "itself": 4441,
      "earn": 4442,
      "drug": 4443,
      "rent": 4444,
      "managing": 4445,
      "Remove": 4446,
      "programming": 4447,
      "providers": 4448,
      "Does": 4449,
      "carro": 4450,
      "capt": 4451,
      "scary": 4452,
      "broad": 4453,
      "confidence": 4454,
      "creamy": 4455,
      "placed": 4456,
      "periods": 4457,
      "frequently": 4458,
      "regarding": 4459,
      "chemical": 4460,
      "picture": 4461,
      "incredible": 4462,
      "reputation": 4463,
      "Furthermore": 4464,
      "shelter": 4465,
      "!,": 4466,
      "37": 4467,
      "App": 4468,
      "Date": 4469,
      "Food": 4470,
      "French": 4471,
      "List": 4472,
      "Sw": 4473,
      "School": 4474,
      "SMS": 4475,
      "York": 4476,
      "huge": 4477,
      "ny": 4478,
      "wise": 4479,
      "ander": 4480,
      "asking": 4481,
      "rob": 4482,
      "mood": 4483,
      "acing": 4484,
      "accom": 4485,
      "persever": 4486,
      "pover": 4487,
      "poetry": 4488,
      "pleas": 4489,
      "servation": 4490,
      "plot": 4491,
      "solve": 4492,
      "calm": 4493,
      "busy": 4494,
      "Encourage": 4495,
      "realize": 4496,
      "audit": 4497,
      "websites": 4498,
      "ocado": 4499,
      "operation": 4500,
      "kindness": 4501,
      "biomass": 4502,
      "biggest": 4503,
      "directly": 4504,
      "descriptions": 4505,
      "status": 4506,
      "settings": 4507,
      "walked": 4508,
      "breaks": 4509,
      "engineering": 4510,
      "Mexican": 4511,
      "historical": 4512,
      "gentle": 4513,
      "schedule": 4514,
      "document": 4515,
      "reveal": 4516,
      "21": 4517,
      "29": 4518,
      "35": 4519,
      "AL": 4520,
      "Ben": 4521,
      "HT": 4522,
      "IP": 4523,
      "ON": 4524,
      "Part": 4525,
      "Try": 4526,
      "gro": 4527,
      "gency": 4528,
      "sell": 4529,
      "thread": 4530,
      "recycl": 4531,
      "escape": 4532,
      "andom": 4533,
      "comments": 4534,
      "map": 4535,
      "haha": 4536,
      "tele": 4537,
      "pricing": 4538,
      "asts": 4539,
      "Indi": 4540,
      "Italian": 4541,
      "efs": 4542,
      "cipl": 4543,
      "forever": 4544,
      "plays": 4545,
      "preser": 4546,
      "practicing": 4547,
      "profit": 4548,
      "lasting": 4549,
      "mixed": 4550,
      "opened": 4551,
      "panel": 4552,
      "vegetable": 4553,
      "symptoms": 4554,
      "messaging": 4555,
      "cleaning": 4556,
      "swer": 4557,
      "teacher": 4558,
      "machines": 4559,
      "familiar": 4560,
      "________________": 4561,
      "Smith": 4562,
      "North": 4563,
      "exactly": 4564,
      "vacation": 4565,
      "Austr": 4566,
      "Bef": 4567,
      "Cr": 4568,
      "ae": 4569,
      "dial": 4570,
      "gs": 4571,
      "hund": 4572,
      "tut": 4573,
      "tall": 4574,
      "uce": 4575,
      "wit": 4576,
      "ongoing": 4577,
      "almon": 4578,
      "icted": 4579,
      "eli": 4580,
      "acon": 4581,
      "apple": 4582,
      "oosing": 4583,
      "stra": 4584,
      "strain": 4585,
      "posure": 4586,
      "ously": 4587,
      "intense": 4588,
      "ails": 4589,
      "dried": 4590,
      "regul": 4591,
      "guy": 4592,
      "meric": 4593,
      "brew": 4594,
      "structures": 4595,
      "leader": 4596,
      "improvement": 4597,
      "currents": 4598,
      "studying": 4599,
      "Group": 4600,
      "variations": 4601,
      "competitors": 4602,
      "messages": 4603,
      "complexity": 4604,
      "highlights": 4605,
      "cope": 4606,
      "surrounding": 4607,
      "chatbots": 4608,
      "consumers": 4609,
      "Mexico": 4610,
      "hospit": 4611,
      "sharp": 4612,
      "stakeholders": 4613,
      "Before": 4614,
      "AN": 4615,
      "CSV": 4616,
      "EP": 4617,
      "Tom": 4618,
      "Ver": 4619,
      "ape": 4620,
      "fet": 4621,
      "hur": 4622,
      "mut": 4623,
      "sister": 4624,
      "winter": 4625,
      "onions": 4626,
      "enable": 4627,
      "oral": 4628,
      "ching": 4629,
      "entertain": 4630,
      "beat": 4631,
      "imin": 4632,
      "acity": 4633,
      "ula": 4634,
      "meals": 4635,
      "illa": 4636,
      "shell": 4637,
      "perovskite": 4638,
      "umb": 4639,
      "aving": 4640,
      "othermal": 4641,
      "discipl": 4642,
      "tomato": 4643,
      "ensity": 4644,
      "rows": 4645,
      "bles": 4646,
      "careful": 4647,
      "evenly": 4648,
      "cert": 4649,
      "ucum": 4650,
      "Today": 4651,
      "Therefore": 4652,
      "vention": 4653,
      "staying": 4654,
      "film": 4655,
      "Check": 4656,
      "wheel": 4657,
      "models": 4658,
      "India": 4659,
      "inoa": 4660,
      "housing": 4661,
      "dollars": 4662,
      "poverty": 4663,
      "Block": 4664,
      "Look": 4665,
      "Russ": 4666,
      "Wed": 4667,
      "aks": 4668,
      "hob": 4669,
      "pand": 4670,
      "pic": 4671,
      "zy": 4672,
      "thous": 4673,
      "rema": 4674,
      "onom": 4675,
      "icts": 4676,
      "cher": 4677,
      "church": 4678,
      "roof": 4679,
      "roles": 4680,
      "adults": 4681,
      "becomes": 4682,
      "explan": 4683,
      "losing": 4684,
      "opin": 4685,
      "master": 4686,
      "atever": 4687,
      "lip": 4688,
      "ups": 4689,
      "asters": 4690,
      "portal": 4691,
      "prem": 4692,
      "internet": 4693,
      "experts": 4694,
      "counsel": 4695,
      "student": 4696,
      "starts": 4697,
      "police": 4698,
      "grown": 4699,
      "numerous": 4700,
      "views": 4701,
      "availability": 4702,
      "package": 4703,
      "tonight": 4704,
      "eventually": 4705,
      "connections": 4706,
      "combined": 4707,
      "zebr": 4708,
      "holding": 4709,
      "certainly": 4710,
      "statistics": 4711,
      "homelessness": 4712,
      "reflects": 4713,
      "Chef": 4714,
      "introduced": 4715,
      "circular": 4716,
      "hesive": 4717,
      "surprised": 4718,
      "System": 4719,
      "Build": 4720,
      "People": 4721,
      "primary": 4722,
      "transparency": 4723,
      "village": 4724,
      "immune": 4725,
      "!\"": 4726,
      "Ear": 4727,
      "Hold": 4728,
      "Ram": 4729,
      "Sup": 4730,
      "Water": 4731,
      "astr": 4732,
      "bals": 4733,
      "hips": 4734,
      "ml": 4735,
      "mes": 4736,
      "random": 4737,
      "sco": 4738,
      "uary": 4739,
      "yard": 4740,
      "zer": 4741,
      "inct": 4742,
      "retail": 4743,
      "states": 4744,
      "beach": 4745,
      "sud": 4746,
      "estic": 4747,
      "club": 4748,
      "crete": 4749,
      "disaster": 4750,
      "gypt": 4751,
      "aft": 4752,
      "medicine": 4753,
      "Analy": 4754,
      "Answer": 4755,
      "serves": 4756,
      "causing": 4757,
      "highest": 4758,
      "State": 4759,
      "prompt": 4760,
      "eases": 4761,
      "cloth": 4762,
      "clothes": 4763,
      "conscious": 4764,
      "institutions": 4765,
      "societ": 4766,
      "cookies": 4767,
      "bottom": 4768,
      "shapes": 4769,
      "container": 4770,
      "scenar": 4771,
      "savings": 4772,
      "spring": 4773,
      "lucky": 4774,
      "API": 4775,
      "impressive": 4776,
      "listening": 4777,
      "carry": 4778,
      "hospital": 4779,
      "flexible": 4780,
      "supplies": 4781,
      "title": 4782,
      "yogurt": 4783,
      "Green": 4784,
      "Owen": 4785,
      "sexual": 4786,
      "compassion": 4787,
      "Ident": 4788,
      "Bill": 4789,
      "Center": 4790,
      "Ju": 4791,
      "User": 4792,
      "cities": 4793,
      "cucum": 4794,
      "ito": 4795,
      "iation": 4796,
      "mort": 4797,
      "nur": 4798,
      "noodles": 4799,
      "rang": 4800,
      "tension": 4801,
      "star": 4802,
      "stuff": 4803,
      "oma": 4804,
      "cha": 4805,
      "adoption": 4806,
      "makers": 4807,
      "resource": 4808,
      "wealth": 4809,
      "artist": 4810,
      "grilled": 4811,
      "note": 4812,
      "notice": 4813,
      "diseases": 4814,
      "driven": 4815,
      "positions": 4816,
      "managed": 4817,
      "differences": 4818,
      "lighten": 4819,
      "ashing": 4820,
      "followed": 4821,
      "ucch": 4822,
      "lessly": 4823,
      "telling": 4824,
      "camping": 4825,
      "focusing": 4826,
      "metal": 4827,
      "missed": 4828,
      "Army": 4829,
      "protection": 4830,
      "graphics": 4831,
      "cutting": 4832,
      "responsibility": 4833,
      "contributions": 4834,
      "relief": 4835,
      "aught": 4836,
      "scene": 4837,
      "increasingly": 4838,
      "demonstrate": 4839,
      "slowly": 4840,
      "limitations": 4841,
      "conducted": 4842,
      "lonely": 4843,
      "sandwich": 4844,
      "prioritize": 4845,
      "accomplish": 4846,
      "Sonos": 4847,
      "rapid": 4848,
      "Indian": 4849,
      "straight": 4850,
      "31": 4851,
      "Egypt": 4852,
      "Fol": 4853,
      "Par": 4854,
      "Pour": 4855,
      "Park": 4856,
      "Post": 4857,
      "Rep": 4858,
      "Rob": 4859,
      "UR": 4860,
      "bid": 4861,
      "cil": 4862,
      "dess": 4863,
      "glow": 4864,
      "pen": 4865,
      "rit": 4866,
      "sick": 4867,
      "task": 4868,
      "iner": 4869,
      "enables": 4870,
      "stone": 4871,
      "robot": 4872,
      "amed": 4873,
      "ably": 4874,
      "proced": 4875,
      "iflower": 4876,
      "university": 4877,
      "uliflower": 4878,
      "aper": 4879,
      "emy": 4880,
      "bye": 4881,
      "coord": 4882,
      "cogn": 4883,
      "despite": 4884,
      "berries": 4885,
      "centers": 4886,
      "markets": 4887,
      "Really": 4888,
      "mindset": 4889,
      "talent": 4890,
      "transition": 4891,
      "payment": 4892,
      "languages": 4893,
      "expectations": 4894,
      "drop": 4895,
      "mitigate": 4896,
      "football": 4897,
      "unders": 4898,
      "contains": 4899,
      "innovation": 4900,
      "describ": 4901,
      "consumption": 4902,
      "employment": 4903,
      "Twitter": 4904,
      "songs": 4905,
      "agriculture": 4906,
      "ticket": 4907,
      "toppings": 4908,
      "Greek": 4909,
      "empathy": 4910,
      "BBQ": 4911,
      "Employe": 4912,
      "remains": 4913,
      "Har": 4914,
      "Like": 4915,
      "MG": 4916,
      "Net": 4917,
      "Sl": 4918,
      "South": 4919,
      "bt": 4920,
      "iance": 4921,
      "mber": 4922,
      "rase": 4923,
      "instru": 4924,
      "esides": 4925,
      "stability": 4926,
      "asive": 4927,
      "chi": 4928,
      "choosing": 4929,
      "gran": 4930,
      "grill": 4931,
      "spicy": 4932,
      "discovery": 4933,
      "minced": 4934,
      "soldi": 4935,
      "2014": 4936,
      "organized": 4937,
      "courses": 4938,
      "slices": 4939,
      "controll": 4940,
      "Road": 4941,
      "ogue": 4942,
      "Quant": 4943,
      "steak": 4944,
      "girlfriend": 4945,
      "breathing": 4946,
      "injury": 4947,
      "resistance": 4948,
      "html": 4949,
      "sample": 4950,
      "whisk": 4951,
      "database": 4952,
      "Renew": 4953,
      "hidden": 4954,
      "csv": 4955,
      "Wednes": 4956,
      "Ah": 4957,
      "Bas": 4958,
      "Bro": 4959,
      "Clar": 4960,
      "Dav": 4961,
      "Even": 4962,
      "Ha": 4963,
      "Partic": 4964,
      "Spe": 4965,
      "dim": 4966,
      "die": 4967,
      "fell": 4968,
      "gives": 4969,
      "ik": 4970,
      "ls": 4971,
      "vast": 4972,
      "via": 4973,
      "inci": 4974,
      "repe": 4975,
      "attem": 4976,
      "stim": 4977,
      "stars": 4978,
      "height": 4979,
      "subs": 4980,
      "proto": 4981,
      "concrete": 4982,
      "resol": 4983,
      "deplo": 4984,
      "friger": 4985,
      "astics": 4986,
      "coast": 4987,
      "heritage": 4988,
      "drum": 4989,
      "produced": 4990,
      "phen": 4991,
      "buying": 4992,
      "Church": 4993,
      "arry": 4994,
      "wrap": 4995,
      "guys": 4996,
      "pped": 4997,
      "Associ": 4998,
      "sale": 4999,
      "2019": 5000,
      "putting": 5001,
      "expenses": 5002,
      "Program": 5003,
      "capable": 5004,
      "header": 5005,
      "mixing": 5006,
      "refresh": 5007,
      "Expl": 5008,
      "functional": 5009,
      "operating": 5010,
      "flavorful": 5011,
      "traits": 5012,
      "appealing": 5013,
      "traveling": 5014,
      "supernatural": 5015,
      "sentence": 5016,
      "survive": 5017,
      "achieved": 5018,
      "hesit": 5019,
      "mechanisms": 5020,
      "palind": 5021,
      "normal": 5022,
      "inspiring": 5023,
      "surprise": 5024,
      "syntax": 5025,
      "Christmas": 5026,
      "constantly": 5027,
      "components": 5028,
      "suffer": 5029,
      "mistakes": 5030,
      "moisture": 5031,
      "Angela": 5032,
      "battery": 5033,
      "lentils": 5034,
      "spinach": 5035,
      "calendar": 5036,
      "tutor": 5037,
      "ucchini": 5038,
      "Quantum": 5039,
      "Wednesday": 5040,
      "Apr": 5041,
      "Cant": 5042,
      "Hot": 5043,
      "Mid": 5044,
      "Mag": 5045,
      "NU": 5046,
      "UC": 5047,
      "XY": 5048,
      "average": 5049,
      "ders": 5050,
      "ek": 5051,
      "hack": 5052,
      "oke": 5053,
      "rub": 5054,
      "scar": 5055,
      "tan": 5056,
      "wet": 5057,
      "rewards": 5058,
      "estern": 5059,
      "itution": 5060,
      "arily": 5061,
      "churn": 5062,
      "root": 5063,
      "loop": 5064,
      "acci": 5065,
      "agno": 5066,
      "uliet": 5067,
      "maze": 5068,
      "plications": 5069,
      "soil": 5070,
      "quiet": 5071,
      "ured": 5072,
      "noticed": 5073,
      "disabilities": 5074,
      "disasters": 5075,
      "boats": 5076,
      "corner": 5077,
      "solving": 5078,
      "letters": 5079,
      "ashed": 5080,
      "apped": 5081,
      "audi": 5082,
      "profile": 5083,
      "Project": 5084,
      "capabilities": 5085,
      "sites": 5086,
      "humans": 5087,
      "excite": 5088,
      "config": 5089,
      "analyzing": 5090,
      "multi": 5091,
      "statue": 5092,
      "restaurants": 5093,
      "truth": 5094,
      "imagine": 5095,
      "introduction": 5096,
      "honest": 5097,
      "cumin": 5098,
      "intricate": 5099,
      "wedding": 5100,
      "lux": 5101,
      "degree": 5102,
      "fantastic": 5103,
      "History": 5104,
      "carrots": 5105,
      "Follow": 5106,
      "Renewable": 5107,
      "Particip": 5108,
      "34": 5109,
      "Cap": 5110,
      "Elect": 5111,
      "LD": 5112,
      "Lab": 5113,
      "Most": 5114,
      "Sk": 5115,
      "Sometimes": 5116,
      "bio": 5117,
      "dou": 5118,
      "hang": 5119,
      "slo": 5120,
      "spl": 5121,
      "tile": 5122,
      "tours": 5123,
      "ume": 5124,
      "infl": 5125,
      "icon": 5126,
      "chart": 5127,
      "igating": 5128,
      "unt": 5129,
      "outs": 5130,
      "notable": 5131,
      "flat": 5132,
      "awk": 5133,
      "gged": 5134,
      "diagno": 5135,
      "memor": 5136,
      "foods": 5137,
      "tiles": 5138,
      "tempor": 5139,
      "population": 5140,
      "applied": 5141,
      "operate": 5142,
      "published": 5143,
      "Play": 5144,
      "equal": 5145,
      "genetic": 5146,
      "strengthen": 5147,
      "gaming": 5148,
      "deeply": 5149,
      "discussing": 5150,
      "objects": 5151,
      "objectives": 5152,
      "Serv": 5153,
      "Work": 5154,
      "darkness": 5155,
      "istry": 5156,
      "commercial": 5157,
      "recognition": 5158,
      "crowd": 5159,
      "Moreover": 5160,
      "sacr": 5161,
      "vibrant": 5162,
      "wheelchair": 5163,
      "XYZ": 5164,
      "Econom": 5165,
      "Find": 5166,
      "Jour": 5167,
      "MM": 5168,
      "Narr": 5169,
      "Other": 5170,
      "Sum": 5171,
      "Sounds": 5172,
      "Tips": 5173,
      "bold": 5174,
      "caught": 5175,
      "gently": 5176,
      "pts": 5177,
      "scent": 5178,
      "yellow": 5179,
      "rew": 5180,
      "restr": 5181,
      "reward": 5182,
      "reforms": 5183,
      "ename": 5184,
      "ensures": 5185,
      "tofu": 5186,
      "elig": 5187,
      "eline": 5188,
      "idential": 5189,
      "propos": 5190,
      "excess": 5191,
      "extern": 5192,
      "exposure": 5193,
      "mov": 5194,
      "optional": 5195,
      "neck": 5196,
      "hael": 5197,
      "soy": 5198,
      "frustr": 5199,
      "shall": 5200,
      "indo": 5201,
      "libr": 5202,
      "orts": 5203,
      "update": 5204,
      "avocado": 5205,
      "disorder": 5206,
      "context": 5207,
      "adequ": 5208,
      "cake": 5209,
      "Report": 5210,
      "2017": 5211,
      "promise": 5212,
      "rights": 5213,
      "realistic": 5214,
      "generations": 5215,
      "azy": 5216,
      "decide": 5217,
      "locations": 5218,
      "electr": 5219,
      "filename": 5220,
      "shaping": 5221,
      "colleag": 5222,
      "approaches": 5223,
      "windows": 5224,
      "highlighting": 5225,
      "guidelines": 5226,
      "scientists": 5227,
      "ATE": 5228,
      "algorithms": 5229,
      "accurate": 5230,
      "billion": 5231,
      "democr": 5232,
      "appearance": 5233,
      "Similar": 5234,
      "DNC": 5235,
      "NOT": 5236,
      "Effect": 5237,
      "dialogue": 5238,
      "April": 5239,
      "NULL": 5240,
      "70": 5241,
      "CD": 5242,
      "Come": 5243,
      "Coun": 5244,
      "Free": 5245,
      "IF": 5246,
      "Up": 5247,
      "Ze": 5248,
      "fan": 5249,
      "hurt": 5250,
      "sers": 5251,
      "tender": 5252,
      "vital": 5253,
      "anc": 5254,
      "anth": 5255,
      "refriger": 5256,
      "station": 5257,
      "roph": 5258,
      "sushi": 5259,
      "oline": 5260,
      "logo": 5261,
      "accep": 5262,
      "haps": 5263,
      "reson": 5264,
      "ighter": 5265,
      "gry": 5266,
      "clin": 5267,
      "covers": 5268,
      "Which": 5269,
      "overview": 5270,
      "server": 5271,
      "angers": 5272,
      "solid": 5273,
      "wants": 5274,
      "productive": 5275,
      "provider": 5276,
      "2020": 5277,
      "happens": 5278,
      "stored": 5279,
      "apps": 5280,
      "lessons": 5281,
      "keeps": 5282,
      "payments": 5283,
      "targeted": 5284,
      "vegetarian": 5285,
      "happening": 5286,
      "watched": 5287,
      "statement": 5288,
      "ennials": 5289,
      "conversation": 5290,
      "scenes": 5291,
      "rika": 5292,
      "selecting": 5293,
      "linked": 5294,
      "coaching": 5295,
      "acquis": 5296,
      "colonial": 5297,
      "Hope": 5298,
      "encountered": 5299,
      "citiz": 5300,
      "Chap": 5301,
      "extract": 5302,
      "false": 5303,
      "Personal": 5304,
      "Blockchain": 5305,
      "lightenment": 5306,
      "Clara": 5307,
      "movies": 5308,
      "Big": 5309,
      "CH": 5310,
      "Ger": 5311,
      "IG": 5312,
      "Lim": 5313,
      "Sat": 5314,
      "burn": 5315,
      "federal": 5316,
      "hall": 5317,
      "iel": 5318,
      "iage": 5319,
      "jud": 5320,
      "ked": 5321,
      "mm": 5322,
      "pound": 5323,
      "phas": 5324,
      "ried": 5325,
      "sour": 5326,
      "selling": 5327,
      "onacci": 5328,
      "stead": 5329,
      "asset": 5330,
      "ictions": 5331,
      "forced": 5332,
      "heap": 5333,
      "amb": 5334,
      "etc": 5335,
      "unknown": 5336,
      "urs": 5337,
      "construct": 5338,
      "plenty": 5339,
      "worse": 5340,
      "worried": 5341,
      "poems": 5342,
      "cles": 5343,
      "myth": 5344,
      "notes": 5345,
      "discounts": 5346,
      "prec": 5347,
      "cuss": 5348,
      "ibonacci": 5349,
      "nodes": 5350,
      "enger": 5351,
      "award": 5352,
      "gging": 5353,
      "bless": 5354,
      "olog": 5355,
      "healthier": 5356,
      "customized": 5357,
      "seek": 5358,
      "salary": 5359,
      "polit": 5360,
      "happiness": 5361,
      "stores": 5362,
      "completed": 5363,
      "processing": 5364,
      "Under": 5365,
      "reflection": 5366,
      "functionality": 5367,
      "released": 5368,
      "Grand": 5369,
      "swim": 5370,
      "route": 5371,
      "teachers": 5372,
      "articles": 5373,
      "basis": 5374,
      "celebrate": 5375,
      "agreement": 5376,
      "streets": 5377,
      "vehicle": 5378,
      "Okay": 5379,
      "Regular": 5380,
      "Focus": 5381,
      "nutrition": 5382,
      "convenient": 5383,
      "Canada": 5384,
      "Customer": 5385,
      "KET": 5386,
      "Practice": 5387,
      "psychological": 5388,
      "featuring": 5389,
      "counseling": 5390,
      "palindrome": 5391,
      "excitement": 5392,
      "external": 5393,
      "Chapter": 5394,
      "Dad": 5395,
      "Er": 5396,
      "Goth": 5397,
      "Ob": 5398,
      "Ret": 5399,
      "Sil": 5400,
      "Sun": 5401,
      "Test": 5402,
      "Ul": 5403,
      "bun": 5404,
      "cd": 5405,
      "gi": 5406,
      "ij": 5407,
      "jack": 5408,
      "lan": 5409,
      "liv": 5410,
      "pact": 5411,
      "wire": 5412,
      "theaters": 5413,
      "orange": 5414,
      "alia": 5415,
      "stro": 5416,
      "stack": 5417,
      "omnia": 5418,
      "segment": 5419,
      "bean": 5420,
      "beer": 5421,
      "thats": 5422,
      "utter": 5423,
      "ifts": 5424,
      "trouble": 5425,
      "omelet": 5426,
      "ques": 5427,
      "geothermal": 5428,
      "spark": 5429,
      "spaces": 5430,
      "pread": 5431,
      "pregn": 5432,
      "interactions": 5433,
      "bod": 5434,
      "corrup": 5435,
      "auction": 5436,
      "Child": 5437,
      "visiting": 5438,
      "turns": 5439,
      "foundation": 5440,
      "depends": 5441,
      "actively": 5442,
      "calls": 5443,
      "facilities": 5444,
      "slice": 5445,
      "saying": 5446,
      "targeting": 5447,
      "packed": 5448,
      "struggled": 5449,
      "Friday": 5450,
      "switch": 5451,
      "digest": 5452,
      "legacy": 5453,
      "winning": 5454,
      "navigation": 5455,
      "taxes": 5456,
      "wondering": 5457,
      "copy": 5458,
      "ACKET": 5459,
      "heavily": 5460,
      "domin": 5461,
      "initiative": 5462,
      "transformation": 5463,
      "chatbot": 5464,
      "selected": 5465,
      "mechanics": 5466,
      "shoes": 5467,
      "radio": 5468,
      "leadership": 5469,
      "BRACKET": 5470,
      "sorted": 5471,
      "spiritual": 5472,
      "accuracy": 5473,
      "meaningful": 5474,
      "calculate": 5475,
      "golden": 5476,
      "announce": 5477,
      "crops": 5478,
      "Education": 5479,
      "Scott": 5480,
      "feta": 5481,
      "Cantata": 5482,
      "Gothic": 5483,
      "?:": 5484,
      "Both": 5485,
      "CM": 5486,
      "CT": 5487,
      "Ele": 5488,
      "Found": 5489,
      "Link": 5490,
      "Mental": 5491,
      "Top": 5492,
      "Vol": 5493,
      "fiber": 5494,
      "lad": 5495,
      "mn": 5496,
      "oice": 5497,
      "ument": 5498,
      "yer": 5499,
      "intim": 5500,
      "infect": 5501,
      "atin": 5502,
      "atile": 5503,
      "seam": 5504,
      "sus": 5505,
      "concent": 5506,
      "console": 5507,
      "math": 5508,
      "deals": 5509,
      "peas": 5510,
      "anti": 5511,
      "princi": 5512,
      "izer": 5513,
      "myst": 5514,
      "acknow": 5515,
      "flight": 5516,
      "foss": 5517,
      "greens": 5518,
      "drain": 5519,
      "funds": 5520,
      "clock": 5521,
      "hoping": 5522,
      "airy": 5523,
      "apping": 5524,
      "performances": 5525,
      "papers": 5526,
      "reaching": 5527,
      "explores": 5528,
      "direction": 5529,
      "saucepan": 5530,
      "breakfast": 5531,
      "gained": 5532,
      "culinary": 5533,
      "holds": 5534,
      "Organ": 5535,
      "priority": 5536,
      "girls": 5537,
      "drawing": 5538,
      "conflicts": 5539,
      "landscape": 5540,
      "Media": 5541,
      "backups": 5542,
      "influencer": 5543,
      "installed": 5544,
      "pictures": 5545,
      "hydration": 5546,
      "links": 5547,
      "manipulate": 5548,
      "Michael": 5549,
      "enabled": 5550,
      "adopt": 5551,
      "preparing": 5552,
      "department": 5553,
      "insect": 5554,
      "George": 5555,
      "artifact": 5556,
      "soldiers": 5557,
      "principles": 5558,
      "Bir": 5559,
      "Isl": 5560,
      "LY": 5561,
      "Pan": 5562,
      "TO": 5563,
      "UD": 5564,
      "Zach": 5565,
      "bond": 5566,
      "cater": 5567,
      "flying": 5568,
      "gins": 5569,
      "mac": 5570,
      "pile": 5571,
      "wow": 5572,
      "thon": 5573,
      "rein": 5574,
      "omen": 5575,
      "roid": 5576,
      "roast": 5577,
      "oles": 5578,
      "abs": 5579,
      "excep": 5580,
      "canvas": 5581,
      "weet": 5582,
      "wearing": 5583,
      "indicate": 5584,
      "upcoming": 5585,
      "Incorporate": 5586,
      "crazy": 5587,
      "greet": 5588,
      "owner": 5589,
      "rowing": 5590,
      "bling": 5591,
      "auto": 5592,
      "playlist": 5593,
      "relatively": 5594,
      "fiction": 5595,
      "Stir": 5596,
      "closed": 5597,
      "attacks": 5598,
      "expans": 5599,
      "depicted": 5600,
      "Consul": 5601,
      "focuses": 5602,
      "capacity": 5603,
      "hardware": 5604,
      "Exc": 5605,
      "missing": 5606,
      "Prom": 5607,
      "contributed": 5608,
      "male": 5609,
      "hole": 5610,
      "identifying": 5611,
      "wooden": 5612,
      "agraph": 5613,
      "falling": 5614,
      "wastewater": 5615,
      "habits": 5616,
      "integrated": 5617,
      "saving": 5618,
      "turning": 5619,
      "surroundings": 5620,
      "privacy": 5621,
      "impressed": 5622,
      "Discuss": 5623,
      "framework": 5624,
      "manufactur": 5625,
      "mountainous": 5626,
      "Brew": 5627,
      "weaknesses": 5628,
      "fabric": 5629,
      "balsamic": 5630,
      "protocol": 5631,
      "Similarly": 5632,
      "Ultim": 5633,
      "fossil": 5634,
      "AG": 5635,
      "Fibonacci": 5636,
      "MAX": 5637,
      "OR": 5638,
      "Rome": 5639,
      "Rev": 5640,
      "Sor": 5641,
      "Sur": 5642,
      "Wall": 5643,
      "aes": 5644,
      "bin": 5645,
      "bath": 5646,
      "ech": 5647,
      "fold": 5648,
      "fought": 5649,
      "gal": 5650,
      "ox": 5651,
      "rust": 5652,
      "yy": 5653,
      "zen": 5654,
      "zucchini": 5655,
      "insecurity": 5656,
      "rely": 5657,
      "alle": 5658,
      "tore": 5659,
      "toss": 5660,
      "stal": 5661,
      "rol": 5662,
      "forgot": 5663,
      "het": 5664,
      "ower": 5665,
      "amm": 5666,
      "usive": 5667,
      "conservation": 5668,
      "ulating": 5669,
      "tray": 5670,
      "fection": 5671,
      "quarter": 5672,
      "pool": 5673,
      "umin": 5674,
      "inequality": 5675,
      "Invest": 5676,
      "crib": 5677,
      "dra": 5678,
      "skilled": 5679,
      "sold": 5680,
      "supported": 5681,
      "technological": 5682,
      "finds": 5683,
      "2013": 5684,
      "promising": 5685,
      "reduces": 5686,
      "yeah": 5687,
      "accessibility": 5688,
      "Enlightenment": 5689,
      "industrial": 5690,
      "purposes": 5691,
      "profound": 5692,
      "ventions": 5693,
      "enjoying": 5694,
      "paprika": 5695,
      "anecd": 5696,
      "expressions": 5697,
      "Access": 5698,
      "distractions": 5699,
      "adapted": 5700,
      "itespace": 5701,
      "Point": 5702,
      "delivered": 5703,
      "Preheat": 5704,
      "speakers": 5705,
      "habitats": 5706,
      "hydrogen": 5707,
      "Open": 5708,
      "exhibits": 5709,
      "threats": 5710,
      "agricultural": 5711,
      "Hopefully": 5712,
      "Japanese": 5713,
      "argument": 5714,
      "Technology": 5715,
      "maximum": 5716,
      "vulnerable": 5717,
      "DAY": 5718,
      "template": 5719,
      "grocer": 5720,
      "Narrator": 5721,
      "90": 5722,
      "Am": 5723,
      "Brown": 5724,
      "OL": 5725,
      "Penn": 5726,
      "QZE": 5727,
      "Sing": 5728,
      "VPN": 5729,
      "_node": 5730,
      "dining": 5731,
      "fif": 5732,
      "gate": 5733,
      "iat": 5734,
      "ose": 5735,
      "rare": 5736,
      "sizes": 5737,
      "ube": 5738,
      "zo": 5739,
      "andel": 5740,
      "stumbled": 5741,
      "lets": 5742,
      "forces": 5743,
      "seven": 5744,
      "adhesive": 5745,
      "sume": 5746,
      "agents": 5747,
      "agency": 5748,
      "ope": 5749,
      "trail": 5750,
      "shot": 5751,
      "pra": 5752,
      "princ": 5753,
      "thern": 5754,
      "poons": 5755,
      "upset": 5756,
      "god": 5757,
      "brings": 5758,
      "earning": 5759,
      "skil": 5760,
      "counter": 5761,
      "studied": 5762,
      "registration": 5763,
      "choices": 5764,
      "attach": 5765,
      "paragraph": 5766,
      "patent": 5767,
      "potentially": 5768,
      "contract": 5769,
      "approxim": 5770,
      "pedo": 5771,
      "networking": 5772,
      "Because": 5773,
      "emotion": 5774,
      "broken": 5775,
      "Grilled": 5776,
      "marine": 5777,
      "border": 5778,
      "colorful": 5779,
      "characterized": 5780,
      "define": 5781,
      "footprint": 5782,
      "Management": 5783,
      "millennials": 5784,
      "Mrs": 5785,
      "turmeric": 5786,
      "partnerships": 5787,
      "transformed": 5788,
      "farming": 5789,
      "shock": 5790,
      "SEO": 5791,
      "resistant": 5792,
      "wildlife": 5793,
      "correctly": 5794,
      "yoga": 5795,
      "announced": 5796,
      "evaluate": 5797,
      "overwhelming": 5798,
      "minimalist": 5799,
      "drinks": 5800,
      "Muslim": 5801,
      "cowor": 5802,
      "married": 5803,
      "Australia": 5804,
      "pandemic": 5805,
      "explanation": 5806,
      "Identify": 5807,
      "coordin": 5808,
      "understood": 5809,
      "MGM": 5810,
      "luxury": 5811,
      "Excuse": 5812,
      "Sorry": 5813,
      "Agre": 5814,
      "Bel": 5815,
      "EX": 5816,
      "Est": 5817,
      "IB": 5818,
      "La": 5819,
      "MP": 5820,
      "Mill": 5821,
      "Museum": 5822,
      "OS": 5823,
      "Pay": 5824,
      "Pres": 5825,
      "Since": 5826,
      "Tal": 5827,
      "cere": 5828,
      "lately": 5829,
      "laugh": 5830,
      "nine": 5831,
      "tired": 5832,
      "anno": 5833,
      "atically": 5834,
      "oured": 5835,
      "sters": 5836,
      "aside": 5837,
      "chest": 5838,
      "chap": 5839,
      "rot": 5840,
      "verification": 5841,
      "whatever": 5842,
      "agre": 5843,
      "nect": 5844,
      "quinoa": 5845,
      "persu": 5846,
      "strike": 5847,
      "grid": 5848,
      "brid": 5849,
      "commut": 5850,
      "prey": 5851,
      "compelling": 5852,
      "alsa": 5853,
      "manner": 5854,
      "cauliflower": 5855,
      "Chat": 5856,
      "customs": 5857,
      "setbacks": 5858,
      "register": 5859,
      "longest": 5860,
      "promin": 5861,
      "Docker": 5862,
      "belong": 5863,
      "Allow": 5864,
      "benefic": 5865,
      "performing": 5866,
      "refuge": 5867,
      "Arr": 5868,
      "miles": 5869,
      "specialized": 5870,
      "connecting": 5871,
      "Off": 5872,
      "namon": 5873,
      "encourages": 5874,
      "encouraged": 5875,
      "Royal": 5876,
      "distinct": 5877,
      "routes": 5878,
      "woods": 5879,
      "concert": 5880,
      "falls": 5881,
      "laws": 5882,
      "Click": 5883,
      "2005": 5884,
      "defined": 5885,
      "emerged": 5886,
      "discussion": 5887,
      "circum": 5888,
      "reminder": 5889,
      "regional": 5890,
      "recognize": 5891,
      "remained": 5892,
      "official": 5893,
      "standards": 5894,
      "composting": 5895,
      "immers": 5896,
      "torpedo": 5897,
      "categories": 5898,
      "fortunately": 5899,
      "witness": 5900,
      "premium": 5901,
      "David": 5902,
      "Participants": 5903,
      "temporary": 5904,
      "Journal": 5905,
      "colleagues": 5906,
      "ceremon": 5907,
      "314": 5908,
      "313": 5909,
      "?,": 5910,
      "CE": 5911,
      "Cur": 5912,
      "Ess": 5913,
      "Gi": 5914,
      "Level": 5915,
      "Miss": 5916,
      "Nu": 5917,
      "PS": 5918,
      "Ru": 5919,
      "Solar": 5920,
      "Text": 5921,
      "Very": 5922,
      "Wind": 5923,
      "bust": 5924,
      "bask": 5925,
      "cout": 5926,
      "cents": 5927,
      "fle": 5928,
      "fur": 5929,
      "nar": 5930,
      "none": 5931,
      "pion": 5932,
      "sis": 5933,
      "tons": 5934,
      "icking": 5935,
      "chip": 5936,
      "ctors": 5937,
      "sections": 5938,
      "healing": 5939,
      "implications": 5940,
      "conut": 5941,
      "trace": 5942,
      "grab": 5943,
      "grade": 5944,
      "formData": 5945,
      "however": 5946,
      "bra": 5947,
      "interpret": 5948,
      "ishing": 5949,
      "phil": 5950,
      "Chall": 5951,
      "stands": 5952,
      "relations": 5953,
      "visibility": 5954,
      "2012": 5955,
      "searching": 5956,
      "succeed": 5957,
      "showed": 5958,
      "Although": 5959,
      "suggests": 5960,
      "camera": 5961,
      "Exam": 5962,
      "sensitive": 5963,
      "simmer": 5964,
      "Impact": 5965,
      "affecting": 5966,
      "difficulty": 5967,
      "achievements": 5968,
      "Emily": 5969,
      "burden": 5970,
      "sequence": 5971,
      "Note": 5972,
      "treating": 5973,
      "introduce": 5974,
      "usual": 5975,
      "Key": 5976,
      "answers": 5977,
      "respective": 5978,
      "Two": 5979,
      "distribution": 5980,
      "irring": 5981,
      "Local": 5982,
      "illustrate": 5983,
      "qualities": 5984,
      "Community": 5985,
      "insightful": 5986,
      "knit": 5987,
      "isolation": 5988,
      "battle": 5989,
      "neighbors": 5990,
      "thusi": 5991,
      "inventory": 5992,
      "occasionally": 5993,
      "accommod": 5994,
      "Benef": 5995,
      "elihood": 5996,
      "opinions": 5997,
      "zebras": 5998,
      "rituals": 5999,
      "tangy": 6000,
      "audiences": 6001,
      "Electric": 6002,
      "acquisition": 6003,
      "1000": 6004,
      "AB": 6005,
      "AI": 6006,
      "Amel": 6007,
      "Broad": 6008,
      "DR": 6009,
      "Dig": 6010,
      "Es": 6011,
      "Email": 6012,
      "Jen": 6013,
      "Job": 6014,
      "Met": 6015,
      "Mac": 6016,
      "MBR": 6017,
      "Port": 6018,
      "Pug": 6019,
      "Show": 6020,
      "bies": 6021,
      "cto": 6022,
      "cash": 6023,
      "ga": 6024,
      "gage": 6025,
      "kno": 6026,
      "rhy": 6027,
      "river": 6028,
      "sch": 6029,
      "session": 6030,
      "wider": 6031,
      "ancial": 6032,
      "enthusi": 6033,
      "elab": 6034,
      "seed": 6035,
      "selection": 6036,
      "adm": 6037,
      "iding": 6038,
      "motion": 6039,
      "accounts": 6040,
      "essence": 6041,
      "iest": 6042,
      "shades": 6043,
      "aint": 6044,
      "stract": 6045,
      "grills": 6046,
      "crew": 6047,
      "doors": 6048,
      "braid": 6049,
      "themat": 6050,
      "White": 6051,
      "speech": 6052,
      "syrup": 6053,
      "obtain": 6054,
      "extend": 6055,
      "thrive": 6056,
      "charity": 6057,
      "clos": 6058,
      "cloves": 6059,
      "Sovi": 6060,
      "Oh_comma_": 6061,
      "slide": 6062,
      "faster": 6063,
      "combinations": 6064,
      "Steven": 6065,
      "contributing": 6066,
      "Second": 6067,
      "digit": 6068,
      "optimal": 6069,
      "optimizing": 6070,
      "bank": 6071,
      "younger": 6072,
      "seasoning": 6073,
      "ING": 6074,
      "pairs": 6075,
      "cinnamon": 6076,
      "raised": 6077,
      "tailored": 6078,
      "celebration": 6079,
      "reference": 6080,
      "domestic": 6081,
      "honor": 6082,
      "nearby": 6083,
      "frequency": 6084,
      "destro": 6085,
      "scratch": 6086,
      "Index": 6087,
      "historic": 6088,
      "relaxation": 6089,
      "England": 6090,
      "flexibility": 6091,
      "fingers": 6092,
      "gonna": 6093,
      "festival": 6094,
      "Scene": 6095,
      "thoroughly": 6096,
      "incentives": 6097,
      "adventure": 6098,
      "procedures": 6099,
      "antha": 6100,
      "citizens": 6101,
      "Benefits": 6102,
      "Amelia": 6103,
      "Pugli": 6104,
      "elabor": 6105,
      "Soviet": 6106,
      "23": 6107,
      "Deter": 6108,
      "Hum": 6109,
      "Harr": 6110,
      "Lou": 6111,
      "Meas": 6112,
      "Mountain": 6113,
      "Non": 6114,
      "Publ": 6115,
      "Pho": 6116,
      "Right": 6117,
      "Sud": 6118,
      "Shand": 6119,
      "Tit": 6120,
      "ault": 6121,
      "bake": 6122,
      "booking": 6123,
      "dut": 6124,
      "dairy": 6125,
      "gifts": 6126,
      "mate": 6127,
      "px": 6128,
      "scan": 6129,
      "uel": 6130,
      "vina": 6131,
      "insul": 6132,
      "reet": 6133,
      "tot": 6134,
      "itable": 6135,
      "stirring": 6136,
      "asp": 6137,
      "chant": 6138,
      "veys": 6139,
      "composition": 6140,
      "igret": 6141,
      "lym": 6142,
      "excl": 6143,
      "export": 6144,
      "confirm": 6145,
      "trips": 6146,
      "soda": 6147,
      "tears": 6148,
      "artistic": 6149,
      "grain": 6150,
      "anymore": 6151,
      "workplace": 6152,
      "foster": 6153,
      "knows": 6154,
      "posing": 6155,
      "managers": 6156,
      "blank": 6157,
      "buzz": 6158,
      "Chang": 6159,
      "centuries": 6160,
      "personnel": 6161,
      "grammar": 6162,
      "signs": 6163,
      "visuals": 6164,
      "2015": 6165,
      "Street": 6166,
      "delicate": 6167,
      "potato": 6168,
      "hopeful": 6169,
      "muf": 6170,
      "attending": 6171,
      "offerings": 6172,
      "suggested": 6173,
      "trading": 6174,
      "lastic": 6175,
      "harder": 6176,
      "eleg": 6177,
      "transactions": 6178,
      "investig": 6179,
      "experiencing": 6180,
      "paying": 6181,
      "annual": 6182,
      "broke": 6183,
      "iversities": 6184,
      "responses": 6185,
      "Brit": 6186,
      "encouraging": 6187,
      "equipped": 6188,
      "Manager": 6189,
      "harvest": 6190,
      "continuous": 6191,
      "paintings": 6192,
      "landscap": 6193,
      "Perform": 6194,
      "celery": 6195,
      "delivering": 6196,
      "efficiently": 6197,
      "ecosystems": 6198,
      "Super": 6199,
      "remaining": 6200,
      "chemistry": 6201,
      "distributed": 6202,
      "disruptions": 6203,
      "William": 6204,
      "acidification": 6205,
      "Campaign": 6206,
      "horrible": 6207,
      "component": 6208,
      "enabling": 6209,
      "modify": 6210,
      "barriers": 6211,
      "--------": 6212,
      "ADE": 6213,
      "involvement": 6214,
      "critic": 6215,
      "estimated": 6216,
      "shadows": 6217,
      "perseverance": 6218,
      "hospitality": 6219,
      "chaos": 6220,
      "inflamm": 6221,
      "skillet": 6222,
      "Chatbots": 6223,
      "Shandong": 6224,
      "vinaigret": 6225,
      "vinaigrette": 6226,
      "2000": 6227,
      "312": 6228,
      "99": 6229,
      "Ado": 6230,
      "Bi": 6231,
      "Cup": 6232,
      "Case": 6233,
      "Cele": 6234,
      "Dub": 6235,
      "FADE": 6236,
      "Give": 6237,
      "Jones": 6238,
      "Jules": 6239,
      "Li": 6240,
      "Loc": 6241,
      "March": 6242,
      "Nice": 6243,
      "PT": 6244,
      "eight": 6245,
      "gic": 6246,
      "kick": 6247,
      "lum": 6248,
      "lined": 6249,
      "mirr": 6250,
      "nest": 6251,
      "rix": 6252,
      "sion": 6253,
      "salsa": 6254,
      "waves": 6255,
      "rey": 6256,
      "reds": 6257,
      "oned": 6258,
      "oubles": 6259,
      "orient": 6260,
      "toast": 6261,
      "leans": 6262,
      "leverage": 6263,
      "oman": 6264,
      "chick": 6265,
      "elimin": 6266,
      "yout": 6267,
      "ida": 6268,
      "immer": 6269,
      "amel": 6270,
      "eters": 6271,
      "une": 6272,
      "lots": 6273,
      "consul": 6274,
      "concep": 6275,
      "convention": 6276,
      "trig": 6277,
      "residents": 6278,
      "Those": 6279,
      "shirt": 6280,
      "artment": 6281,
      "prison": 6282,
      "ipped": 6283,
      "disappoint": 6284,
      "noise": 6285,
      "deser": 6286,
      "medication": 6287,
      "shoulders": 6288,
      "smile": 6289,
      "everyday": 6290,
      "2016": 6291,
      "attle": 6292,
      "param": 6293,
      "showcases": 6294,
      "court": 6295,
      "username": 6296,
      "audio": 6297,
      "generally": 6298,
      "landing": 6299,
      "shares": 6300,
      "possess": 6301,
      "networks": 6302,
      "checks": 6303,
      "bottle": 6304,
      "spirits": 6305,
      "Prior": 6306,
      "measuring": 6307,
      "explored": 6308,
      "shake": 6309,
      "hearing": 6310,
      "governments": 6311,
      "Resp": 6312,
      "Security": 6313,
      "confusion": 6314,
      "perfectly": 6315,
      "accordingly": 6316,
      "appeared": 6317,
      "naval": 6318,
      "parent": 6319,
      "warmth": 6320,
      "dressed": 6321,
      "defense": 6322,
      "Financial": 6323,
      "lawyer": 6324,
      "storm": 6325,
      "fuels": 6326,
      "temperatures": 6327,
      "collaborate": 6328,
      "rolling": 6329,
      "appreciation": 6330,
      "snacks": 6331,
      "greenhouse": 6332,
      "cotton": 6333,
      "bags": 6334,
      "mechanism": 6335,
      "installation": 6336,
      "Smart": 6337,
      "Sym": 6338,
      "injuries": 6339,
      "crispy": 6340,
      "durable": 6341,
      "isolated": 6342,
      "Spring": 6343,
      "volunteer": 6344,
      "violence": 6345,
      "Passage": 6346,
      "almond": 6347,
      "Earth": 6348,
      "Support": 6349,
      "July": 6350,
      "proposal": 6351,
      "swimming": 6352,
      "refugees": 6353,
      "Nuuk": 6354,
      "Adobe": 6355,
      "Celebr": 6356,
      "\":": 6357,
      "28": 6358,
      "5_conv": 6359,
      "CA": 6360,
      "ED": 6361,
      "Fam": 6362,
      "Gold": 6363,
      "Jack": 6364,
      "JIM": 6365,
      "Lord": 6366,
      "Mil": 6367,
      "Next": 6368,
      "Pa": 6369,
      "Ryan": 6370,
      "RATE": 6371,
      "Sha": 6372,
      "Tur": 6373,
      "bly": 6374,
      "bills": 6375,
      "fare": 6376,
      "floo": 6377,
      "gender": 6378,
      "harm": 6379,
      "mig": 6380,
      "mural": 6381,
      "nom": 6382,
      "nab": 6383,
      "nels": 6384,
      "pill": 6385,
      "raw": 6386,
      "score": 6387,
      "vict": 6388,
      "void": 6389,
      "enne": 6390,
      "itious": 6391,
      "editing": 6392,
      "stages": 6393,
      "bear": 6394,
      "imiter": 6395,
      "comment": 6396,
      "absolutely": 6397,
      "mole": 6398,
      "uncertain": 6399,
      "loan": 6400,
      "agencies": 6401,
      "urday": 6402,
      "conference": 6403,
      "cant": 6404,
      "opposition": 6405,
      "outline": 6406,
      "ourselves": 6407,
      "fears": 6408,
      "quir": 6409,
      "queries": 6410,
      "worn": 6411,
      "newfound": 6412,
      "cribe": 6413,
      "criter": 6414,
      "flag": 6415,
      "destru": 6416,
      "draft": 6417,
      "observed": 6418,
      "supposed": 6419,
      "loose": 6420,
      "survey": 6421,
      "guard": 6422,
      "guaran": 6423,
      "versatile": 6424,
      "findings": 6425,
      "promised": 6426,
      "delimiter": 6427,
      "structuring": 6428,
      "reduction": 6429,
      "End": 6430,
      "follows": 6431,
      "viewers": 6432,
      "personalities": 6433,
      "promotions": 6434,
      "azz": 6435,
      "resulted": 6436,
      "landmarks": 6437,
      "Union": 6438,
      "coverage": 6439,
      "investigate": 6440,
      "weekly": 6441,
      "possibility": 6442,
      "dishwas": 6443,
      "Online": 6444,
      "reporting": 6445,
      "casing": 6446,
      "Resorts": 6447,
      "Roasted": 6448,
      "dedication": 6449,
      "eggplant": 6450,
      "authorities": 6451,
      "cards": 6452,
      "Orleans": 6453,
      "Leena": 6454,
      "exploration": 6455,
      "Strate": 6456,
      "alternatives": 6457,
      "frequent": 6458,
      "pulled": 6459,
      "tablespoons": 6460,
      "couver": 6461,
      "authentic": 6462,
      "Feel": 6463,
      "assessment": 6464,
      "Optim": 6465,
      "NET": 6466,
      "Vancouver": 6467,
      "incredibly": 6468,
      "knife": 6469,
      "htt": 6470,
      "degrees": 6471,
      "vanilla": 6472,
      "modified": 6473,
      "pursue": 6474,
      "Department": 6475,
      "candid": 6476,
      "civilization": 6477,
      "sculpture": 6478,
      "decline": 6479,
      "Autom": 6480,
      "Jenna": 6481,
      "226": 6482,
      "thousands": 6483,
      "LDAP": 6484,
      "indoor": 6485,
      "adequate": 6486,
      "Ultimately": 6487,
      "Dubai": 6488,
      "\"\"": 6489,
      "44": 6490,
      "Aug": 6491,
      "Bud": 6492,
      "Care": 6493,
      "Card": 6494,
      "Cross": 6495,
      "Dar": 6496,
      "Mal": 6497,
      "Olym": 6498,
      "Sch": 6499,
      "Sci": 6500,
      "Tar": 6501,
      "UG": 6502,
      "bing": 6503,
      "dad": 6504,
      "eer": 6505,
      "font": 6506,
      "las": 6507,
      "mart": 6508,
      "ni": 6509,
      "oy": 6510,
      "ole": 6511,
      "sin": 6512,
      "stood": 6513,
      "tes": 6514,
      "anz": 6515,
      "eric": 6516,
      "atar": 6517,
      "ening": 6518,
      "ald": 6519,
      "aland": 6520,
      "ittle": 6521,
      "assem": 6522,
      "entities": 6523,
      "seaf": 6524,
      "ador": 6525,
      "ament": 6526,
      "suspect": 6527,
      "mode": 6528,
      "unk": 6529,
      "ulated": 6530,
      "negot": 6531,
      "mathemat": 6532,
      "soo": 6533,
      "liqu": 6534,
      "coconut": 6535,
      "spots": 6536,
      "otherwise": 6537,
      "crumbled": 6538,
      "discount": 6539,
      "flakes": 6540,
      "compat": 6541,
      "knowing": 6542,
      "internal": 6543,
      "amele": 6544,
      "lla": 6545,
      "Chicken": 6546,
      "differentiate": 6547,
      "arrived": 6548,
      "fried": 6549,
      "Asia": 6550,
      "salmon": 6551,
      "supports": 6552,
      "Stay": 6553,
      "identified": 6554,
      "venues": 6555,
      "consent": 6556,
      "parking": 6557,
      "textures": 6558,
      "Alli": 6559,
      "generating": 6560,
      "posting": 6561,
      "muses": 6562,
      "invested": 6563,
      "Trad": 6564,
      "Plus": 6565,
      "variable": 6566,
      "meets": 6567,
      "boring": 6568,
      "hotels": 6569,
      "enjoyed": 6570,
      "controls": 6571,
      "optimization": 6572,
      "retention": 6573,
      "mobility": 6574,
      "boards": 6575,
      "writers": 6576,
      "Collabor": 6577,
      "consistency": 6578,
      "guided": 6579,
      "Monday": 6580,
      "Monitor": 6581,
      "semester": 6582,
      "resilient": 6583,
      "regardless": 6584,
      "incident": 6585,
      "utilized": 6586,
      "pull": 6587,
      "Feed": 6588,
      "officials": 6589,
      "secrets": 6590,
      "spoke": 6591,
      "decreased": 6592,
      "Break": 6593,
      "micro": 6594,
      "perspectives": 6595,
      "substitute": 6596,
      "bullying": 6597,
      "Students": 6598,
      "appointment": 6599,
      "documents": 6600,
      "fabrics": 6601,
      "hiking": 6602,
      "category": 6603,
      "boundaries": 6604,
      "demonstrated": 6605,
      "satisfying": 6606,
      "Apple": 6607,
      "drinking": 6608,
      "hashtags": 6609,
      "Central": 6610,
      "cultivate": 6611,
      "intelligence": 6612,
      "marinade": 6613,
      "captiv": 6614,
      "suddenly": 6615,
      "cognitive": 6616,
      "refreshing": 6617,
      "Hotel": 6618,
      "Zealand": 6619,
      "accepted": 6620,
      "Wallace": 6621,
      "approximately": 6622,
      "Muslims": 6623,
      "basket": 6624,
      "philos": 6625,
      "totally": 6626,
      "concepts": 6627,
      "conventional": 6628,
      "dishwasher": 6629,
      "August": 6630,
      "36": 6631,
      "Aud": 6632,
      "Back": 6633,
      "Cult": 6634,
      "Div": 6635,
      "Dire": 6636,
      "FC": 6637,
      "Gro": 6638,
      "Hol": 6639,
      "Jim": 6640,
      "Kids": 6641,
      "Mor": 6642,
      "Main": 6643,
      "Ocean": 6644,
      "Pal": 6645,
      "Spread": 6646,
      "Ur": 6647,
      "bars": 6648,
      "ft": 6649,
      "gall": 6650,
      "hing": 6651,
      "ii": 6652,
      "iot": 6653,
      "jal": 6654,
      "kit": 6655,
      "nation": 6656,
      "nie": 6657,
      "pour": 6658,
      "race": 6659,
      "sized": 6660,
      "sought": 6661,
      "vic": 6662,
      "vend": 6663,
      "wro": 6664,
      "wol": 6665,
      "inher": 6666,
      "onna": 6667,
      "theater": 6668,
      "encryp": 6669,
      "stuck": 6670,
      "chances": 6671,
      "adult": 6672,
      "ola": 6673,
      "ette": 6674,
      "aband": 6675,
      "absor": 6676,
      "abstract": 6677,
      "usable": 6678,
      "whitespace": 6679,
      "una": 6680,
      "unity": 6681,
      "agent": 6682,
      "convert": 6683,
      "yours": 6684,
      "weap": 6685,
      "shut": 6686,
      "shred": 6687,
      "straw": 6688,
      "grass": 6689,
      "anyway": 6690,
      "clues": 6691,
      "claims": 6692,
      "formal": 6693,
      "cozy": 6694,
      "portfol": 6695,
      "workspace": 6696,
      "bris": 6697,
      "bridge": 6698,
      "boil": 6699,
      "producing": 6700,
      "Angl": 6701,
      "berg": 6702,
      "shouldn": 6703,
      "increases": 6704,
      "supportive": 6705,
      "closing": 6706,
      "applying": 6707,
      "patience": 6708,
      "tradition": 6709,
      "Nothing": 6710,
      "Prov": 6711,
      "Proper": 6712,
      "Product": 6713,
      "mustard": 6714,
      "testim": 6715,
      "missions": 6716,
      "balanced": 6717,
      "returned": 6718,
      "countless": 6719,
      "Prof": 6720,
      "addressing": 6721,
      "names": 6722,
      "Without": 6723,
      "itches": 6724,
      "arrays": 6725,
      "legs": 6726,
      "explained": 6727,
      "mandoline": 6728,
      "gradually": 6729,
      "authorized": 6730,
      "writer": 6731,
      "avoiding": 6732,
      "thyroid": 6733,
      "integration": 6734,
      "celebrated": 6735,
      "firewall": 6736,
      "recognized": 6737,
      "literary": 6738,
      "surrounded": 6739,
      "magn": 6740,
      "nearly": 6741,
      "speaker": 6742,
      "utilizing": 6743,
      "exhibit": 6744,
      "fascinated": 6745,
      "previously": 6746,
      "torn": 6747,
      "reservation": 6748,
      "Barnab": 6749,
      "Canadian": 6750,
      "Define": 6751,
      "Samantha": 6752,
      "satisfied": 6753,
      "embrace": 6754,
      "Centre": 6755,
      "intelligent": 6756,
      "Engineer": 6757,
      "facilitate": 6758,
      "suspense": 6759,
      "forests": 6760,
      "independent": 6761,
      "regulatory": 6762,
      "entertainment": 6763,
      "cucumber": 6764,
      "dimensions": 6765,
      "democracy": 6766,
      "Saturday": 6767,
      "quesion": 6768,
      "exceptional": 6769,
      "expansion": 6770,
      "principle": 6771,
      "elaborate": 6772,
      "consult": 6773,
      "wrote": 6774,
      "Anglican": 6775,
      "32": 6776,
      "Ama": 6777,
      "ANE": 6778,
      "Bet": 6779,
      "Cour": 6780,
      "Det": 6781,
      "Ebol": 6782,
      "Fun": 6783,
      "Fest": 6784,
      "Hand": 6785,
      "Has": 6786,
      "Haw": 6787,
      "House": 6788,
      "JANE": 6789,
      "Kh": 6790,
      "Lon": 6791,
      "Line": 6792,
      "Lending": 6793,
      "Mary": 6794,
      "Py": 6795,
      "Parm": 6796,
      "Sen": 6797,
      "Sof": 6798,
      "Sust": 6799,
      "Select": 6800,
      "Tex": 6801,
      "UN": 6802,
      "Users": 6803,
      "awe": 6804,
      "ec": 6805,
      "jam": 6806,
      "kne": 6807,
      "mouth": 6808,
      "mashed": 6809,
      "nap": 6810,
      "pil": 6811,
      "rus": 6812,
      "rum": 6813,
      "sque": 6814,
      "uan": 6815,
      "vable": 6816,
      "wake": 6817,
      "yo": 6818,
      "ano": 6819,
      "restructuring": 6820,
      "atitude": 6821,
      "orn": 6822,
      "alin": 6823,
      "token": 6824,
      "itiner": 6825,
      "lever": 6826,
      "lete": 6827,
      "chev": 6828,
      "chefs": 6829,
      "eles": 6830,
      "ellect": 6831,
      "entry": 6832,
      "vember": 6833,
      "advis": 6834,
      "begins": 6835,
      "etime": 6836,
      "iron": 6837,
      "irts": 6838,
      "utions": 6839,
      "exists": 6840,
      "unable": 6841,
      "lov": 6842,
      "loans": 6843,
      "urally": 6844,
      "urning": 6845,
      "cancell": 6846,
      "uled": 6847,
      "otic": 6848,
      "haun": 6849,
      "outcome": 6850,
      "peel": 6851,
      "illness": 6852,
      "frag": 6853,
      "weird": 6854,
      "stranger": 6855,
      "umes": 6856,
      "ache": 6857,
      "portable": 6858,
      "newsp": 6859,
      "crack": 6860,
      "cket": 6861,
      "coll": 6862,
      "intended": 6863,
      "interventions": 6864,
      "extensive": 6865,
      "extended": 6866,
      "manual": 6867,
      "berry": 6868,
      "Thats": 6869,
      "Web": 6870,
      "divers": 6871,
      "Cho": 6872,
      "fundam": 6873,
      "Adv": 6874,
      "checking": 6875,
      "firms": 6876,
      "accessories": 6877,
      "planned": 6878,
      "joint": 6879,
      "iances": 6880,
      "Toky": 6881,
      "showcasing": 6882,
      "improvements": 6883,
      "strategic": 6884,
      "pork": 6885,
      "No_comma_": 6886,
      "muscles": 6887,
      "headers": 6888,
      "eleph": 6889,
      "covering": 6890,
      "refused": 6891,
      "slic": 6892,
      "occup": 6893,
      "Trans": 6894,
      "emails": 6895,
      "runs": 6896,
      "physics": 6897,
      "considering": 6898,
      "simulation": 6899,
      "lefto": 6900,
      "reached": 6901,
      "printed": 6902,
      "Wow_comma_": 6903,
      "incorporated": 6904,
      "director": 6905,
      "Emp": 6906,
      "symbolism": 6907,
      "routines": 6908,
      "moral": 6909,
      "concern": 6910,
      "computers": 6911,
      "millions": 6912,
      "purchasing": 6913,
      "giveness": 6914,
      "roller": 6915,
      "placing": 6916,
      "integrity": 6917,
      "accountability": 6918,
      "measurements": 6919,
      "spray": 6920,
      "valued": 6921,
      "referral": 6922,
      "channel": 6923,
      "crafts": 6924,
      "Suite": 6925,
      "blogs": 6926,
      "mountains": 6927,
      "Contin": 6928,
      "tourism": 6929,
      "ultimate": 6930,
      "interviews": 6931,
      "promotional": 6932,
      "maximize": 6933,
      "evolved": 6934,
      "Janet": 6935,
      "preparation": 6936,
      "LED": 6937,
      "overwhelmed": 6938,
      "Mindfulness": 6939,
      "stretch": 6940,
      "indicating": 6941,
      "Hydro": 6942,
      "recycling": 6943,
      "hundreds": 6944,
      "brewery": 6945,
      "scenarios": 6946,
      "robotics": 6947,
      "controlled": 6948,
      "Association": 6949,
      "sacrific": 6950,
      "eligible": 6951,
      "refrigerator": 6952,
      "ursday": 6953,
      "bodies": 6954,
      "concentration": 6955,
      "Islamic": 6956,
      "Agree": 6957,
      "chapter": 6958,
      "prominent": 6959,
      "circumst": 6960,
      "immersive": 6961,
      "closely": 6962,
      "Puglia": 6963,
      "Determine": 6964,
      "Suddenly": 6965,
      "Title": 6966,
      "Performance": 6967,
      "seafood": 6968,
      "Ebola": 6969,
      "Tokyo": 6970,
      "';": 6971,
      "ALL": 6972,
      "Bake": 6973,
      "Cal": 6974,
      "DV": 6975,
      "Dear": 6976,
      "Home": 6977,
      "Happ": 6978,
      "Little": 6979,
      "Night": 6980,
      "Never": 6981,
      "Pun": 6982,
      "Roman": 6983,
      "Sand": 6984,
      "Sher": 6985,
      "Suc": 6986,
      "TD": 6987,
      "besides": 6988,
      "gang": 6989,
      "hu": 6990,
      "iking": 6991,
      "jum": 6992,
      "kia": 6993,
      "lun": 6994,
      "loud": 6995,
      "pit": 6996,
      "pink": 6997,
      "rat": 6998,
      "sq": 6999,
      "va": 7000,
      "voting": 7001,
      "wings": 7002,
      "yn": 7003,
      "eros": 7004,
      "esan": 7005,
      "islands": 7006,
      "icans": 7007,
      "leep": 7008,
      "chips": 7009,
      "ctic": 7010,
      "secon": 7011,
      "adan": 7012,
      "admin": 7013,
      "amer": 7014,
      "comed": 7015,
      "pros": 7016,
      "cancel": 7017,
      "resc": 7018,
      "Though": 7019,
      "shine": 7020,
      "antly": 7021,
      "prints": 7022,
      "grace": 7023,
      "izable": 7024,
      "myster": 7025,
      "geo": 7026,
      "cock": 7027,
      "spon": 7028,
      "spreading": 7029,
      "Inc": 7030,
      "add_": 7031,
      "crush": 7032,
      "nose": 7033,
      "whose": 7034,
      "although": 7035,
      "lifetime": 7036,
      "ologies": 7037,
      "wellbeing": 7038,
      "bub": 7039,
      "Chor": 7040,
      "mayonna": 7041,
      "twice": 7042,
      "developments": 7043,
      "Assign": 7044,
      "Recipe": 7045,
      "valve": 7046,
      "2010": 7047,
      "Stalin": 7048,
      "designing": 7049,
      "plane": 7050,
      "facts": 7051,
      "paraph": 7052,
      "tells": 7053,
      "singing": 7054,
      "promoted": 7055,
      "profess": 7056,
      "Nokia": 7057,
      "musical": 7058,
      "150": 7059,
      "investors": 7060,
      "Common": 7061,
      "locally": 7062,
      "metaph": 7063,
      "humor": 7064,
      "Gratitude": 7065,
      "household": 7066,
      "sensation": 7067,
      "actionable": 7068,
      "Prim": 7069,
      "verna": 7070,
      "gene": 7071,
      "retire": 7072,
      "expressing": 7073,
      "purchases": 7074,
      "storing": 7075,
      "cardio": 7076,
      "talked": 7077,
      "Series": 7078,
      "attribut": 7079,
      "integrate": 7080,
      "sentences": 7081,
      "dealing": 7082,
      "automatically": 7083,
      "minimize": 7084,
      "trend": 7085,
      "impression": 7086,
      "matches": 7087,
      "collections": 7088,
      "anxious": 7089,
      "coaches": 7090,
      "utilize": 7091,
      "Gogh": 7092,
      "expanding": 7093,
      "ownership": 7094,
      "occurs": 7095,
      "ROI": 7096,
      "hosting": 7097,
      "rushchev": 7098,
      "matrix": 7099,
      "horror": 7100,
      "Sprinkle": 7101,
      "finger": 7102,
      "Caverna": 7103,
      "January": 7104,
      "passionate": 7105,
      "Increased": 7106,
      "gunboats": 7107,
      "punct": 7108,
      "arrangement": 7109,
      "soul": 7110,
      "Swans": 7111,
      "pleasure": 7112,
      "revealed": 7113,
      "Ramadan": 7114,
      "Robert": 7115,
      "Middle": 7116,
      "pregnancy": 7117,
      "mystery": 7118,
      "anecdotes": 7119,
      "rhyth": 7120,
      "criteria": 7121,
      "Khrushchev": 7122,
      "LendingPoint": 7123,
      "Parmesan": 7124,
      "Sustain": 7125,
      "circumstances": 7126,
      "seconds": 7127,
      "mayonnaise": 7128,
      "2M": 7129,
      "3D": 7130,
      "??": 7131,
      "Best": 7132,
      "Battle": 7133,
      "Cost": 7134,
      "HER": 7135,
      "Ill": 7136,
      "Kah": 7137,
      "Low": 7138,
      "Light": 7139,
      "Love": 7140,
      "LCM": 7141,
      "ML": 7142,
      "Ner": 7143,
      "Nut": 7144,
      "Name": 7145,
      "RT": 7146,
      "SA": 7147,
      "Sep": 7148,
      "Tem": 7149,
      "Tues": 7150,
      "UK": 7151,
      "Were": 7152,
      "bacon": 7153,
      "cable": 7154,
      "density": 7155,
      "ffer": 7156,
      "mur": 7157,
      "pure": 7158,
      "pup": 7159,
      "patch": 7160,
      "pets": 7161,
      "vit": 7162,
      "rear": 7163,
      "reuse": 7164,
      "enemy": 7165,
      "alerts": 7166,
      "stalg": 7167,
      "isons": 7168,
      "island": 7169,
      "oms": 7170,
      "seat": 7171,
      "heim": 7172,
      "beings": 7173,
      "irty": 7174,
      "units": 7175,
      "acch": 7176,
      "accoun": 7177,
      "ull": 7178,
      "mentor": 7179,
      "otta": 7180,
      "trav": 7181,
      "troubles": 7182,
      "resort": 7183,
      "deed": 7184,
      "debris": 7185,
      "Thursday": 7186,
      "ivo": 7187,
      "quote": 7188,
      "ooks": 7189,
      "perim": 7190,
      "pray": 7191,
      "grief": 7192,
      "creature": 7193,
      "izers": 7194,
      "coat": 7195,
      "dustr": 7196,
      "Industr": 7197,
      "ignore": 7198,
      "flies": 7199,
      "interaction": 7200,
      "intersection": 7201,
      "blender": 7202,
      "persist": 7203,
      "shoulder": 7204,
      "underlying": 7205,
      "developers": 7206,
      "chosen": 7207,
      "insomnia": 7208,
      "letting": 7209,
      "merger": 7210,
      "worldwide": 7211,
      "requests": 7212,
      "foliage": 7213,
      "joined": 7214,
      "attitude": 7215,
      "advoc": 7216,
      "passing": 7217,
      "organize": 7218,
      "minds": 7219,
      "Altern": 7220,
      "Connect": 7221,
      "November": 7222,
      "elsius": 7223,
      "bookmarks": 7224,
      "chains": 7225,
      "clearly": 7226,
      "Arch": 7227,
      "graphs": 7228,
      "targets": 7229,
      "shipping": 7230,
      "spiracy": 7231,
      "Improved": 7232,
      "printing": 7233,
      "responsive": 7234,
      "shaped": 7235,
      "structured": 7236,
      "Bring": 7237,
      "bigger": 7238,
      "Describe": 7239,
      "Shell": 7240,
      "birds": 7241,
      "fallen": 7242,
      "sunset": 7243,
      "basil": 7244,
      "thyme": 7245,
      "complicated": 7246,
      "izzes": 7247,
      "Order": 7248,
      "entered": 7249,
      "gratulations": 7250,
      "warning": 7251,
      "steel": 7252,
      "sprinkle": 7253,
      "Poetry": 7254,
      "Perhaps": 7255,
      "Marcus": 7256,
      "Avatar": 7257,
      "backgrounds": 7258,
      "destination": 7259,
      "Content": 7260,
      "cycling": 7261,
      "distribute": 7262,
      "extrem": 7263,
      "Christian": 7264,
      "Everything": 7265,
      "duration": 7266,
      "downloads": 7267,
      "tunnels": 7268,
      "romantic": 7269,
      "acceptance": 7270,
      "anticip": 7271,
      "Increase": 7272,
      "cryptocurrency": 7273,
      "Garfield": 7274,
      "crunchy": 7275,
      "mortgage": 7276,
      "dessert": 7277,
      "Explor": 7278,
      "library": 7279,
      "phase": 7280,
      "precision": 7281,
      "mnastics": 7282,
      "hetti": 7283,
      "grocery": 7284,
      "EXT": 7285,
      "agreed": 7286,
      "persuasive": 7287,
      "Digital": 7288,
      "British": 7289,
      "landscapes": 7290,
      "Family": 7291,
      "UGC": 7292,
      "liquid": 7293,
      "ameleons": 7294,
      "London": 7295,
      "Success": 7296,
      "Tuesday": 7297,
      "01": 7298,
      "AF": 7299,
      "Bob": 7300,
      "ESS": 7301,
      "Fer": 7302,
      "Host": 7303,
      "IE": 7304,
      "Kara": 7305,
      "Long": 7306,
      "Mem": 7307,
      "Material": 7308,
      "Mike": 7309,
      "Pu": 7310,
      "Pos": 7311,
      "Rel": 7312,
      "TM": 7313,
      "Western": 7314,
      "aer": 7315,
      "aids": 7316,
      "bage": 7317,
      "cab": 7318,
      "cies": 7319,
      "ccol": 7320,
      "dirt": 7321,
      "ection": 7322,
      "fits": 7323,
      "iors": 7324,
      "len": 7325,
      "lid": 7326,
      "lies": 7327,
      "lav": 7328,
      "pn": 7329,
      "sist": 7330,
      "scream": 7331,
      "ued": 7332,
      "ubs": 7333,
      "regre": 7334,
      "remot": 7335,
      "thedr": 7336,
      "oust": 7337,
      "org": 7338,
      "orter": 7339,
      "toys": 7340,
      "toward": 7341,
      "stig": 7342,
      "ari": 7343,
      "rop": 7344,
      "heal": 7345,
      "heating": 7346,
      "iders": 7347,
      "amp": 7348,
      "ols": 7349,
      "olic": 7350,
      "verify": 7351,
      "utility": 7352,
      "ifer": 7353,
      "acor": 7354,
      "ague": 7355,
      "conver": 7356,
      "mentions": 7357,
      "resent": 7358,
      "illnesses": 7359,
      "actors": 7360,
      "fry": 7361,
      "pride": 7362,
      "endless": 7363,
      "izon": 7364,
      "formed": 7365,
      "ums": 7366,
      "aching": 7367,
      "province": 7368,
      "Init": 7369,
      "ferences": 7370,
      "iew": 7371,
      "predat": 7372,
      "collap": 7373,
      "intu": 7374,
      "intensity": 7375,
      "noc": 7376,
      "no_comma_": 7377,
      "nostalg": 7378,
      "desire": 7379,
      "auma": 7380,
      "dipl": 7381,
      "diagram": 7382,
      "fintech": 7383,
      "greatly": 7384,
      "inval": 7385,
      "surfaces": 7386,
      "marketers": 7387,
      "teammates": 7388,
      "Conduct": 7389,
      "branding": 7390,
      "mush": 7391,
      "election": 7392,
      "classroom": 7393,
      "Begin": 7394,
      "keywords": 7395,
      "cuts": 7396,
      "enjoyable": 7397,
      "participating": 7398,
      "encouragement": 7399,
      "distances": 7400,
      "directory": 7401,
      "tags": 7402,
      "feeding": 7403,
      "Class": 7404,
      "Clint": 7405,
      "harmon": 7406,
      "conversions": 7407,
      "coping": 7408,
      "representing": 7409,
      "browser": 7410,
      "measured": 7411,
      "demands": 7412,
      "featured": 7413,
      "COM": 7414,
      "baggy": 7415,
      "collected": 7416,
      "semary": 7417,
      "employed": 7418,
      "habitat": 7419,
      "consumed": 7420,
      "III": 7421,
      "fighting": 7422,
      "officer": 7423,
      "spoken": 7424,
      "peaceful": 7425,
      "launched": 7426,
      "ENT": 7427,
      "thesis": 7428,
      "crisis": 7429,
      "Studies": 7430,
      "niche": 7431,
      "Technical": 7432,
      "convenience": 7433,
      "skiing": 7434,
      "iffs": 7435,
      "sculptures": 7436,
      "frozen": 7437,
      "Visual": 7438,
      "www": 7439,
      "laptop": 7440,
      "drugs": 7441,
      "preserve": 7442,
      "hundred": 7443,
      "Russian": 7444,
      "hobbies": 7445,
      "retailers": 7446,
      "Analyze": 7447,
      "societal": 7448,
      "societies": 7449,
      "rapidly": 7450,
      "Employee": 7451,
      "Slide": 7452,
      "memorable": 7453,
      "acknowled": 7454,
      "insects": 7455,
      "olescents": 7456,
      "IBM": 7457,
      "beneficial": 7458,
      "torpedoes": 7459,
      "Essay": 7460,
      "Ruby": 7461,
      "Python": 7462,
      "Chocolate": 7463,
      "paraphrase": 7464,
      "perimeter": 7465,
      "extremely": 7466,
      "ccoli": 7467,
      "remotely": 7468,
      "Bacch": 7469,
      "Cath": 7470,
      "El": 7471,
      "Egg": 7472,
      "Fit": 7473,
      "Flor": 7474,
      "Federal": 7475,
      "Gor": 7476,
      "HP": 7477,
      "Ho": 7478,
      "King": 7479,
      "Nature": 7480,
      "OF": 7481,
      "Oper": 7482,
      "Pur": 7483,
      "Sir": 7484,
      "Seas": 7485,
      "Ut": 7486,
      "Yog": 7487,
      "bay": 7488,
      "baked": 7489,
      "divid": 7490,
      "dash": 7491,
      "eem": 7492,
      "gross": 7493,
      "hou": 7494,
      "hilar": 7495,
      "pm": 7496,
      "ron": 7497,
      "rig": 7498,
      "rav": 7499,
      "rack": 7500,
      "sche": 7501,
      "tap": 7502,
      "tack": 7503,
      "wis": 7504,
      "west": 7505,
      "wines": 7506,
      "ya": 7507,
      "za": 7508,
      "inal": 7509,
      "retain": 7510,
      "onials": 7511,
      "ouds": 7512,
      "espan": 7513,
      "orian": 7514,
      "alam": 7515,
      "totem": 7516,
      "stitution": 7517,
      "omile": 7518,
      "omatic": 7519,
      "forgiveness": 7520,
      "seal": 7521,
      "heit": 7522,
      "admission": 7523,
      "amoun": 7524,
      "suits": 7525,
      "lywood": 7526,
      "exts": 7527,
      "except": 7528,
      "unit": 7529,
      "urable": 7530,
      "urgency": 7531,
      "contemporary": 7532,
      "uling": 7533,
      "truck": 7534,
      "plas": 7535,
      "plus": 7536,
      "sored": 7537,
      "weigh": 7538,
      "fees": 7539,
      "tegr": 7540,
      "worthy": 7541,
      "likes": 7542,
      "grant": 7543,
      "grav": 7544,
      "anywhere": 7545,
      "embarr": 7546,
      "udes": 7547,
      "buttons": 7548,
      "Indon": 7549,
      "Input": 7550,
      "Integr": 7551,
      "portion": 7552,
      "gods": 7553,
      "workforce": 7554,
      "preval": 7555,
      "ears": 7556,
      "nod": 7557,
      "dragon": 7558,
      "renheit": 7559,
      "awful": 7560,
      "lifespan": 7561,
      "reads": 7562,
      "aki": 7563,
      "customize": 7564,
      "relate": 7565,
      "Real": 7566,
      "mostly": 7567,
      "charges": 7568,
      "breach": 7569,
      "ahrenheit": 7570,
      "caring": 7571,
      "joining": 7572,
      "atters": 7573,
      "paralle": 7574,
      "ricotta": 7575,
      "Together": 7576,
      "lesson": 7577,
      "azil": 7578,
      "bookmark": 7579,
      "painted": 7580,
      "locate": 7581,
      "cription": 7582,
      "populations": 7583,
      "lime": 7584,
      "netic": 7585,
      "Arin": 7586,
      "Well_comma_": 7587,
      "meetings": 7588,
      "genre": 7589,
      "laboratory": 7590,
      "Someone": 7591,
      "approached": 7592,
      "receiving": 7593,
      "Brush": 7594,
      "directions": 7595,
      "reliance": 7596,
      "reliability": 7597,
      "ogical": 7598,
      "Institute": 7599,
      "likelihood": 7600,
      "lowercase": 7601,
      "terrain": 7602,
      "Acad": 7603,
      "authority": 7604,
      "bird": 7605,
      "sunlight": 7606,
      "bedroom": 7607,
      "Salvation": 7608,
      "attractive": 7609,
      "policymakers": 7610,
      "ranking": 7611,
      "ACEs": 7612,
      "Abby": 7613,
      "consistently": 7614,
      "drawn": 7615,
      "Cool": 7616,
      "Decor": 7617,
      "advertise": 7618,
      "melted": 7619,
      "silence": 7620,
      "picked": 7621,
      "grandmother": 7622,
      "BRI": 7623,
      "trained": 7624,
      "immense": 7625,
      "emphasizes": 7626,
      "qualified": 7627,
      "cornbread": 7628,
      "houses": 7629,
      "neighborhood": 7630,
      "Phil": 7631,
      "evolve": 7632,
      "transparent": 7633,
      "DNA": 7634,
      "Pattern": 7635,
      "romeo": 7636,
      "holidays": 7637,
      "hurric": 7638,
      "Russia": 7639,
      "hobby": 7640,
      "described": 7641,
      "split": 7642,
      "Service": 7643,
      "Limited": 7644,
      "Silk": 7645,
      "Sunday": 7646,
      "manufacturer": 7647,
      "Establ": 7648,
      "narrow": 7649,
      "Examples": 7650,
      "accommodations": 7651,
      "Science": 7652,
      "Target": 7653,
      "shredded": 7654,
      "ellectual": 7655,
      "slicer": 7656,
      "Chorus": 7657,
      "punctuation": 7658,
      "Clinton": 7659,
      "Bacchus": 7660,
      "Indones": 7661,
      "26": 7662,
      "300": 7663,
      "Aw": 7664,
      "Athen": 7665,
      "Ber": 7666,
      "CIT": 7667,
      "Dou": 7668,
      "Down": 7669,
      "Equ": 7670,
      "East": 7671,
      "Event": 7672,
      "GAC": 7673,
      "JESS": 7674,
      "Karan": 7675,
      "Learning": 7676,
      "Mir": 7677,
      "M2M": 7678,
      "Nat": 7679,
      "Pizza": 7680,
      "Rich": 7681,
      "SD": 7682,
      "Store": 7683,
      "Tell": 7684,
      "Turn": 7685,
      "Vict": 7686,
      "bare": 7687,
      "bree": 7688,
      "dar": 7689,
      "eve": 7690,
      "eager": 7691,
      "juliet": 7692,
      "kill": 7693,
      "lamb": 7694,
      "native": 7695,
      "pH": 7696,
      "pas": 7697,
      "ror": 7698,
      "sop": 7699,
      "sending": 7700,
      "slip": 7701,
      "uality": 7702,
      "warr": 7703,
      "wheat": 7704,
      "inches": 7705,
      "resume": 7706,
      "alike": 7707,
      "assets": 7708,
      "youth": 7709,
      "ilty": 7710,
      "aded": 7711,
      "imper": 7712,
      "impossible": 7713,
      "olac": 7714,
      "prop": 7715,
      "ifies": 7716,
      "mozz": 7717,
      "ophy": 7718,
      "neuro": 7719,
      "trick": 7720,
      "maker": 7721,
      "Thom": 7722,
      "estate": 7723,
      "female": 7724,
      "quizzes": 7725,
      "ains": 7726,
      "worst": 7727,
      "liver": 7728,
      "pod": 7729,
      "pole": 7730,
      "timeline": 7731,
      "workout": 7732,
      "dispar": 7733,
      "overnight": 7734,
      "collo": 7735,
      "desper": 7736,
      "enges": 7737,
      "cords": 7738,
      "aws": 7739,
      "produces": 7740,
      "whenever": 7741,
      "lift": 7742,
      "greatest": 7743,
      "seekers": 7744,
      "Advert": 7745,
      "pping": 7746,
      "Regard": 7747,
      "cheap": 7748,
      "everywhere": 7749,
      "ficient": 7750,
      "Form": 7751,
      "accessing": 7752,
      "saut": 7753,
      "stepped": 7754,
      "handling": 7755,
      "parsle": 7756,
      "Congratulations": 7757,
      "listed": 7758,
      "branded": 7759,
      "heads": 7760,
      "venture": 7761,
      "facial": 7762,
      "elev": 7763,
      "decades": 7764,
      "currencies": 7765,
      "limits": 7766,
      "oils": 7767,
      "monthly": 7768,
      "True": 7769,
      "milest": 7770,
      "checked": 7771,
      "involving": 7772,
      "cute": 7773,
      "blocks": 7774,
      "ordinary": 7775,
      "Frank": 7776,
      "Brand": 7777,
      "initely": 7778,
      "volume": 7779,
      "preferred": 7780,
      "Johnson": 7781,
      "enhancing": 7782,
      "gamification": 7783,
      "bury": 7784,
      "burger": 7785,
      "grades": 7786,
      "essays": 7787,
      "fishing": 7788,
      "imagination": 7789,
      "Salad": 7790,
      "beginner": 7791,
      "beginners": 7792,
      "vocal": 7793,
      "saved": 7794,
      "discussions": 7795,
      "drawbacks": 7796,
      "USA": 7797,
      "snack": 7798,
      "references": 7799,
      "minimum": 7800,
      "literacy": 7801,
      "float": 7802,
      "Maria": 7803,
      "silver": 7804,
      "employers": 7805,
      "pushing": 7806,
      "fixed": 7807,
      "relaxing": 7808,
      "parks": 7809,
      "acquire": 7810,
      "logistics": 7811,
      "intrig": 7812,
      "layers": 7813,
      "durability": 7814,
      "evalu": 7815,
      "Join": 7816,
      "centralized": 7817,
      "Definitely": 7818,
      "executive": 7819,
      "tastes": 7820,
      "Implementing": 7821,
      "cybersecurity": 7822,
      "Experiment": 7823,
      "comparative": 7824,
      "Building": 7825,
      "Employees": 7826,
      "steady": 7827,
      "Romeo": 7828,
      "Challenges": 7829,
      "scholar": 7830,
      "inflammation": 7831,
      "chickpeas": 7832,
      "Automation": 7833,
      "testimonials": 7834,
      "Festival": 7835,
      "itinerary": 7836,
      "DVD": 7837,
      "Nerolac": 7838,
      "acorns": 7839,
      "diagrams": 7840,
      "Uttar": 7841,
      "amounts": 7842,
      "embarrass": 7843,
      "parsley": 7844,
      "38": 7845,
      "65": 7846,
      "Bow": 7847,
      "CR": 7848,
      "Cover": 7849,
      "Clean": 7850,
      "CUT": 7851,
      "EM": 7852,
      "Ev": 7853,
      "Elastic": 7854,
      "Gover": 7855,
      "GTD": 7856,
      "Icel": 7857,
      "Juliet": 7858,
      "Liam": 7859,
      "Mob": 7860,
      "Mont": 7861,
      "Num": 7862,
      "Octo": 7863,
      "Pot": 7864,
      "Press": 7865,
      "Rut": 7866,
      "Sn": 7867,
      "Scan": 7868,
      "Tim": 7869,
      "UFC": 7870,
      "Vu": 7871,
      "Wil": 7872,
      "eath": 7873,
      "gap": 7874,
      "hover": 7875,
      "jew": 7876,
      "kins": 7877,
      "pha": 7878,
      "paced": 7879,
      "spoon": 7880,
      "tire": 7881,
      "tility": 7882,
      "vote": 7883,
      "wing": 7884,
      "xt": 7885,
      "yurt": 7886,
      "zon": 7887,
      "inhabit": 7888,
      "angry": 7889,
      "eras": 7890,
      "repl": 7891,
      "recru": 7892,
      "replaced": 7893,
      "ati": 7894,
      "alous": 7895,
      "tox": 7896,
      "arise": 7897,
      "iscot": 7898,
      "icating": 7899,
      "entering": 7900,
      "roots": 7901,
      "suited": 7902,
      "etics": 7903,
      "abil": 7904,
      "abund": 7905,
      "arella": 7906,
      "propul": 7907,
      "irrel": 7908,
      "ung": 7909,
      "lob": 7910,
      "loaf": 7911,
      "accum": 7912,
      "conspiracy": 7913,
      "traged": 7914,
      "outstanding": 7915,
      "termin": 7916,
      "peer": 7917,
      "memo": 7918,
      "acter": 7919,
      "fridge": 7920,
      "approved": 7921,
      "apolog": 7922,
      "quit": 7923,
      "antro": 7924,
      "grip": 7925,
      "grated": 7926,
      "claim": 7927,
      "upper": 7928,
      "forming": 7929,
      "formula": 7930,
      "coal": 7931,
      "Ins": 7932,
      "fertility": 7933,
      "godd": 7934,
      "brut": 7935,
      "flash": 7936,
      "sert": 7937,
      "enery": 7938,
      "dram": 7939,
      "drivers": 7940,
      "angle": 7941,
      "detection": 7942,
      "phr": 7943,
      "phones": 7944,
      "cathedr": 7945,
      "forecast": 7946,
      "arrang": 7947,
      "settle": 7948,
      "Adam": 7949,
      "guest": 7950,
      "guilty": 7951,
      "calming": 7952,
      "smiling": 7953,
      "Stat": 7954,
      "practition": 7955,
      "tende": 7956,
      "structural": 7957,
      "stove": 7958,
      "stomach": 7959,
      "airs": 7960,
      "homeowners": 7961,
      "appet": 7962,
      "beneath": 7963,
      "talks": 7964,
      "fluid": 7965,
      "Comb": 7966,
      "slicing": 7967,
      "explaining": 7968,
      "athlet": 7969,
      "Tran": 7970,
      "Train": 7971,
      "Whenever": 7972,
      "filters": 7973,
      "Grad": 7974,
      "kinds": 7975,
      "walks": 7976,
      "reaches": 7977,
      "towel": 7978,
      "genes": 7979,
      "spacecraft": 7980,
      "shops": 7981,
      "environmentally": 7982,
      "characteristics": 7983,
      "contributes": 7984,
      "sweat": 7985,
      "popularity": 7986,
      "appeal": 7987,
      "convin": 7988,
      "Creating": 7989,
      "stressful": 7990,
      "Should": 7991,
      "returning": 7992,
      "News": 7993,
      "navigating": 7994,
      "protected": 7995,
      "integer": 7996,
      "humanity": 7997,
      "burst": 7998,
      "responding": 7999,
      "hale": 8000,
      "conversations": 8001,
      "roads": 8002,
      "emerging": 8003,
      "adjusting": 8004,
      "treated": 8005,
      "sentiment": 8006,
      "discussed": 8007,
      "measurement": 8008,
      "Poem": 8009,
      "squirrel": 8010,
      "dogs": 8011,
      "rule": 8012,
      "recip": 8013,
      "magical": 8014,
      "magaz": 8015,
      "religion": 8016,
      "Display": 8017,
      "Development": 8018,
      "carried": 8019,
      "scrub": 8020,
      "Contact": 8021,
      "Everyone": 8022,
      "Internet": 8023,
      "crisp": 8024,
      "primarily": 8025,
      "columns": 8026,
      "campus": 8027,
      "replacement": 8028,
      "massive": 8029,
      "branch": 8030,
      "accomplished": 8031,
      "boyfriend": 8032,
      "vascular": 8033,
      "cryptography": 8034,
      "initially": 8035,
      "volunteers": 8036,
      "tasty": 8037,
      "frost": 8038,
      "cultivating": 8039,
      "Jennifer": 8040,
      "Lastly": 8041,
      "yani": 8042,
      "clarity": 8043,
      "296": 8044,
      "HTML": 8045,
      "television": 8046,
      "cherry": 8047,
      "scenario": 8048,
      "nurses": 8049,
      "ranging": 8050,
      "phenomen": 8051,
      "restrictions": 8052,
      "clinical": 8053,
      "mythology": 8054,
      "Scottish": 8055,
      "commuting": 8056,
      "Harris": 8057,
      "parameters": 8058,
      "Traditional": 8059,
      "abandoned": 8060,
      "portfolio": 8061,
      "Amazon": 8062,
      "mysterious": 8063,
      "cocktail": 8064,
      "Materials": 8065,
      "predators": 8066,
      "mushrooms": 8067,
      "Season": 8068,
      "Academy": 8069,
      "mozzarella": 8070,
      "colloids": 8071,
      "Advertising": 8072,
      "Elasticsearch": 8073,
      "Iceland": 8074,
      "October": 8075,
      "Rutgers": 8076,
      "iscotti": 8077,
      "propulsion": 8078,
      "goddess": 8079,
      "6_conv": 8080,
      "Again": 8081,
      "Dan": 8082,
      "Dif": 8083,
      "Evalu": 8084,
      "FA": 8085,
      "Fall": 8086,
      "Gen": 8087,
      "Ham": 8088,
      "ION": 8089,
      "JEN": 8090,
      "Luck": 8091,
      "Life": 8092,
      "Ma": 8093,
      "Mom": 8094,
      "Mia": 8095,
      "PR": 8096,
      "Put": 8097,
      "Power": 8098,
      "RC": 8099,
      "Ref": 8100,
      "Sou": 8101,
      "Sol": 8102,
      "Slow": 8103,
      "Search": 8104,
      "Tha": 8105,
      "VAR": 8106,
      "WO": 8107,
      "Wel": 8108,
      "Whe": 8109,
      "Washing": 8110,
      "bite": 8111,
      "blow": 8112,
      "dandel": 8113,
      "ee": 8114,
      "ecol": 8115,
      "gad": 8116,
      "hire": 8117,
      "kin": 8118,
      "lation": 8119,
      "lace": 8120,
      "laid": 8121,
      "mous": 8122,
      "pig": 8123,
      "padding": 8124,
      "pump": 8125,
      "rated": 8126,
      "rating": 8127,
      "ske": 8128,
      "tum": 8129,
      "tures": 8130,
      "tub": 8131,
      "teles": 8132,
      "ws": 8133,
      "wavel": 8134,
      "zes": 8135,
      "retr": 8136,
      "revis": 8137,
      "recording": 8138,
      "reaction": 8139,
      "reefs": 8140,
      "ales": 8141,
      "anda": 8142,
      "item": 8143,
      "itations": 8144,
      "stones": 8145,
      "iser": 8146,
      "iconic": 8147,
      "chameleons": 8148,
      "you_comma_": 8149,
      "ading": 8150,
      "advers": 8151,
      "imaging": 8152,
      "amor": 8153,
      "sucks": 8154,
      "that_comma_": 8155,
      "vering": 8156,
      "exha": 8157,
      "uni": 8158,
      "login": 8159,
      "max": 8160,
      "outbreak": 8161,
      "tery": 8162,
      "Ther": 8163,
      "fragr": 8164,
      "ivals": 8165,
      "apen": 8166,
      "shr": 8167,
      "shelf": 8168,
      "lie": 8169,
      "ipation": 8170,
      "istan": 8171,
      "cohol": 8172,
      "noted": 8173,
      "hadow": 8174,
      "assert": 8175,
      "evolution": 8176,
      "fulfill": 8177,
      "foam": 8178,
      "earned": 8179,
      "drives": 8180,
      "drones": 8181,
      "coral": 8182,
      "blends": 8183,
      "marked": 8184,
      "monument": 8185,
      "akhand": 8186,
      "offices": 8187,
      "fund": 8188,
      "gano": 8189,
      "sett": 8190,
      "versed": 8191,
      "chees": 8192,
      "chose": 8193,
      "poly": 8194,
      "delight": 8195,
      "ledger": 8196,
      "hopes": 8197,
      "Environ": 8198,
      "founder": 8199,
      "append": 8200,
      "mindful": 8201,
      "cameras": 8202,
      "promotes": 8203,
      "profits": 8204,
      "aze": 8205,
      "headings": 8206,
      "tested": 8207,
      "testament": 8208,
      "investigation": 8209,
      "refers": 8210,
      "severe": 8211,
      "appliances": 8212,
      "stayed": 8213,
      "Maya": 8214,
      "senses": 8215,
      "Prime": 8216,
      "trait": 8217,
      "ordered": 8218,
      "sweater": 8219,
      "Yea": 8220,
      "nutri": 8221,
      "devast": 8222,
      "Brazil": 8223,
      "bowling": 8224,
      "inputs": 8225,
      "aura": 8226,
      "appears": 8227,
      "Emma": 8228,
      "Install": 8229,
      "Goodbye": 8230,
      "territ": 8231,
      "babies": 8232,
      "motivations": 8233,
      "imagined": 8234,
      "complain": 8235,
      "objective": 8236,
      "represented": 8237,
      "representation": 8238,
      "Sales": 8239,
      "Mechan": 8240,
      "ranch": 8241,
      "ranching": 8242,
      "automated": 8243,
      "circle": 8244,
      "visualize": 8245,
      "Actually": 8246,
      "rito": 8247,
      "recorded": 8248,
      "screens": 8249,
      "smoothly": 8250,
      "smoothie": 8251,
      "Help": 8252,
      "celer": 8253,
      "magic": 8254,
      "displays": 8255,
      "thankful": 8256,
      "pushed": 8257,
      "AR50": 8258,
      "Vegan": 8259,
      "conducting": 8260,
      "Reduce": 8261,
      "museums": 8262,
      "width": 8263,
      "tightly": 8264,
      "chester": 8265,
      "failed": 8266,
      "welcoming": 8267,
      "illustrations": 8268,
      "dynamics": 8269,
      "emphasis": 8270,
      "Corp": 8271,
      "forgettable": 8272,
      "campfire": 8273,
      "dietary": 8274,
      "branches": 8275,
      "departments": 8276,
      "assignments": 8277,
      "jealous": 8278,
      "Walmart": 8279,
      "ramen": 8280,
      "arrangements": 8281,
      "Mindful": 8282,
      "broader": 8283,
      "almonds": 8284,
      "astronom": 8285,
      "scored": 8286,
      "wealthy": 8287,
      "cilantro": 8288,
      "talented": 8289,
      "slopes": 8290,
      "County": 8291,
      "Freetown": 8292,
      "CHAR50": 8293,
      "corruption": 8294,
      "drained": 8295,
      "shocked": 8296,
      "coworker": 8297,
      "trigger": 8298,
      "victory": 8299,
      "guarantee": 8300,
      "victim": 8301,
      "encryption": 8302,
      "tornado": 8303,
      "Barnabas": 8304,
      "leftover": 8305,
      "erosion": 8306,
      "sponsored": 8307,
      "intuitive": 8308,
      "nocchi": 8309,
      "Florida": 8310,
      "scheme": 8311,
      "sophist": 8312,
      "sauté": 8313,
      "Uttarakhand": 8314,
      "cathedrals": 8315,
      "phenomenon": 8316,
      "VARCHAR50": 8317,
      "Welcome": 8318,
      "Washington": 8319,
      "wavelength": 8320,
      "exhaust": 8321,
      "nutrients": 8322,
      "4_conv": 8323,
      "445": 8324,
      "75": 8325,
      "85": 8326,
      "98": 8327,
      "9_conv": 8328,
      "AA": 8329,
      "Ask": 8330,
      "Besides": 8331,
      "Clim": 8332,
      "Cars": 8333,
      "Dev": 8334,
      "Epo": 8335,
      "Flo": 8336,
      "Fine": 8337,
      "Gl": 8338,
      "Hay": 8339,
      "Hall": 8340,
      "Hub": 8341,
      "LUC": 8342,
      "Mes": 8343,
      "Mart": 8344,
      "Making": 8345,
      "Oliv": 8346,
      "PO": 8347,
      "Pak": 8348,
      "Sel": 8349,
      "Six": 8350,
      "Script": 8351,
      "Table": 8352,
      "UE": 8353,
      "Virt": 8354,
      "VID": 8355,
      "Wa": 8356,
      "_array": 8357,
      "bally": 8358,
      "bits": 8359,
      "bass": 8360,
      "cay": 8361,
      "caf": 8362,
      "df": 8363,
      "dys": 8364,
      "ffield": 8365,
      "ipe": 8366,
      "js": 8367,
      "nuc": 8368,
      "pin": 8369,
      "pian": 8370,
      "tort": 8371,
      "western": 8372,
      "zed": 8373,
      "thers": 8374,
      "thicken": 8375,
      "anes": 8376,
      "remark": 8377,
      "reverse": 8378,
      "reusable": 8379,
      "thening": 8380,
      "atable": 8381,
      "attende": 8382,
      "ornam": 8383,
      "alcohol": 8384,
      "toile": 8385,
      "itics": 8386,
      "aroma": 8387,
      "isco": 8388,
      "icult": 8389,
      "lege": 8390,
      "chef": 8391,
      "charts": 8392,
      "entre": 8393,
      "ctive": 8394,
      "seas": 8395,
      "seating": 8396,
      "oli": 8397,
      "etch": 8398,
      "mock": 8399,
      "modate": 8400,
      "unpredict": 8401,
      "unforgettable": 8402,
      "loves": 8403,
      "ulum": 8404,
      "keys": 8405,
      "otal": 8406,
      "tricks": 8407,
      "trapped": 8408,
      "terior": 8409,
      "plastics": 8410,
      "soak": 8411,
      "me_comma_": 8412,
      "fraud": 8413,
      "ivities": 8414,
      "estion": 8415,
      "apy": 8416,
      "quotes": 8417,
      "shed": 8418,
      "worship": 8419,
      "strive": 8420,
      "prisons": 8421,
      "clouds": 8422,
      "ards": 8423,
      "hasn": 8424,
      "disadvantages": 8425,
      "prev": 8426,
      "ificial": 8427,
      "contest": 8428,
      "boat": 8429,
      "engers": 8430,
      "ultane": 8431,
      "observe": 8432,
      "curse": 8433,
      "bert": 8434,
      "Webs": 8435,
      "phrase": 8436,
      "Change": 8437,
      "arrive": 8438,
      "relatable": 8439,
      "surg": 8440,
      "surveys": 8441,
      "signed": 8442,
      "signals": 8443,
      "careers": 8444,
      "Repe": 8445,
      "fictional": 8446,
      "Stress": 8447,
      "Sheffield": 8448,
      "prompts": 8449,
      "charged": 8450,
      "virus": 8451,
      "varied": 8452,
      "yeast": 8453,
      "accessed": 8454,
      "ioso": 8455,
      "airtight": 8456,
      "parse": 8457,
      "realm": 8458,
      "issance": 8459,
      "processor": 8460,
      "smallest": 8461,
      "Constitution": 8462,
      "capability": 8463,
      "tember": 8464,
      "transaction": 8465,
      "Compar": 8466,
      "scav": 8467,
      "contracts": 8468,
      "popcorn": 8469,
      "Being": 8470,
      "Training": 8471,
      "Tractor": 8472,
      "proteins": 8473,
      "educate": 8474,
      "electronic": 8475,
      "households": 8476,
      "sensations": 8477,
      "Platin": 8478,
      "physically": 8479,
      "Steel": 8480,
      "genius": 8481,
      "printf": 8482,
      "France": 8483,
      "malicious": 8484,
      "improves": 8485,
      "financing": 8486,
      "Rock": 8487,
      "arraylist": 8488,
      "preference": 8489,
      "difficulties": 8490,
      "smoked": 8491,
      "enhanced": 8492,
      "ometry": 8493,
      "terrified": 8494,
      "photography": 8495,
      "concerned": 8496,
      "motivate": 8497,
      "purchased": 8498,
      "balls": 8499,
      "Club": 8500,
      "precious": 8501,
      "izzle": 8502,
      "Cheese": 8503,
      "conversational": 8504,
      "copes": 8505,
      "College": 8506,
      "Mean": 8507,
      "rank": 8508,
      "About": 8509,
      "committee": 8510,
      "removed": 8511,
      "newsletter": 8512,
      "surviv": 8513,
      "dependent": 8514,
      "dependence": 8515,
      "records": 8516,
      "constipation": 8517,
      "COVID": 8518,
      "regards": 8519,
      "respected": 8520,
      "Control": 8521,
      "scheduled": 8522,
      "REST": 8523,
      "Redu": 8524,
      "disrupt": 8525,
      "pollut": 8526,
      "failure": 8527,
      "senior": 8528,
      "suppliers": 8529,
      "manipulating": 8530,
      "AMRC": 8531,
      "Micro": 8532,
      "titles": 8533,
      "evaluation": 8534,
      "occasions": 8535,
      "Phys": 8536,
      "evolving": 8537,
      "citrus": 8538,
      "tickets": 8539,
      "chambers": 8540,
      "seriously": 8541,
      "Blue": 8542,
      "suspicious": 8543,
      "comparison": 8544,
      "positively": 8545,
      "washed": 8546,
      "accidentally": 8547,
      "accommodate": 8548,
      "mutton": 8549,
      "picnic": 8550,
      "sudden": 8551,
      "cucumbers": 8552,
      "Egyptian": 8553,
      "Represent": 8554,
      "attempts": 8555,
      "resolve": 8556,
      "deployed": 8557,
      "Explain": 8558,
      "suffering": 8559,
      "doubt": 8560,
      "Services": 8561,
      "Economic": 8562,
      "necklace": 8563,
      "pounding": 8564,
      "strokes": 8565,
      "Foundation": 8566,
      "protocols": 8567,
      "praised": 8568,
      "Array": 8569,
      "CEO": 8570,
      "Public": 8571,
      "oriented": 8572,
      "Paul": 8573,
      "Malay": 8574,
      "captivating": 8575,
      "Urban": 8576,
      "Texas": 8577,
      "Happy": 8578,
      "September": 8579,
      "nostalgic": 8580,
      "COME": 8581,
      "OFF": 8582,
      "breeze": 8583,
      "passport": 8584,
      "disparities": 8585,
      "Govern": 8586,
      "Scanner": 8587,
      "tragedy": 8588,
      "phrases": 8589,
      "ecological": 8590,
      "Climate": 8591,
      "Olivia": 8592,
      "Platinum": 8593,
      "2f": 8594,
      "2Chef": 8595,
      "Air": 8596,
      "Cas": 8597,
      "Cert": 8598,
      "DC": 8599,
      "DI": 8600,
      "Dream": 8601,
      "Emer": 8602,
      "EAT": 8603,
      "Fl": 8604,
      "Fil": 8605,
      "Flex": 8606,
      "Gard": 8607,
      "Glor": 8608,
      "Hom": 8609,
      "Hind": 8610,
      "IZ": 8611,
      "Jai": 8612,
      "June": 8613,
      "Lu": 8614,
      "Land": 8615,
      "Lil": 8616,
      "Map": 8617,
      "Psy": 8618,
      "RA": 8619,
      "SM": 8620,
      "Sty": 8621,
      "VIP": 8622,
      "Voice": 8623,
      "Win": 8624,
      "aways": 8625,
      "ba": 8626,
      "bind": 8627,
      "bark": 8628,
      "cact": 8629,
      "gus": 8630,
      "kk": 8631,
      "lish": 8632,
      "lighter": 8633,
      "mile": 8634,
      "pum": 8635,
      "pine": 8636,
      "qr": 8637,
      "rings": 8638,
      "sli": 8639,
      "td": 8640,
      "tiny": 8641,
      "uum": 8642,
      "waters": 8643,
      "intake": 8644,
      "infection": 8645,
      "renow": 8646,
      "theories": 8647,
      "envelop": 8648,
      "toll": 8649,
      "icians": 8650,
      "leaf": 8651,
      "chDay": 8652,
      "rose": 8653,
      "rosemary": 8654,
      "forums": 8655,
      "seasons": 8656,
      "adium": 8657,
      "iments": 8658,
      "aming": 8659,
      "suite": 8660,
      "aylor": 8661,
      "prospect": 8662,
      "withstand": 8663,
      "exposed": 8664,
      "unlike": 8665,
      "uncover": 8666,
      "unusual": 8667,
      "universities": 8668,
      "logical": 8669,
      "acceler": 8670,
      "keeper": 8671,
      "trauma": 8672,
      "maple": 8673,
      "devi": 8674,
      "outlines": 8675,
      "plication": 8676,
      "soap": 8677,
      "meats": 8678,
      "acting": 8679,
      "Things": 8680,
      "apt": 8681,
      "omegran": 8682,
      "strict": 8683,
      "endo": 8684,
      "cla": 8685,
      "clubs": 8686,
      "elled": 8687,
      "formats": 8688,
      "doctors": 8689,
      "coco": 8690,
      "crime": 8691,
      "crimin": 8692,
      "disk": 8693,
      "colored": 8694,
      "interior": 8695,
      "engines": 8696,
      "drill": 8697,
      "drome": 8698,
      "driver": 8699,
      "blues": 8700,
      "cursed": 8701,
      "skip": 8702,
      "Chic": 8703,
      "solved": 8704,
      "differently": 8705,
      "invoice": 8706,
      "Heat": 8707,
      "wanting": 8708,
      "signature": 8709,
      "donation": 8710,
      "regulate": 8711,
      "Adding": 8712,
      "guilt": 8713,
      "caly": 8714,
      "charging": 8715,
      "breast": 8716,
      "hopefully": 8717,
      "joys": 8718,
      "handles": 8719,
      "homework": 8720,
      "riculum": 8721,
      "Todo": 8722,
      "fewer": 8723,
      "particles": 8724,
      "activism": 8725,
      "Nov": 8726,
      "presented": 8727,
      "headed": 8728,
      "Unfortunately": 8729,
      "occurren": 8730,
      "Explo": 8731,
      "rising": 8732,
      "possibly": 8733,
      "19th": 8734,
      "releases": 8735,
      "platter": 8736,
      "expecting": 8737,
      "combat": 8738,
      "simultane": 8739,
      "measurable": 8740,
      "genu": 8741,
      "sauces": 8742,
      "Franc": 8743,
      "cleaner": 8744,
      "contribution": 8745,
      "strengthening": 8746,
      "drops": 8747,
      "directed": 8748,
      "digits": 8749,
      "banking": 8750,
      "fitting": 8751,
      "expressed": 8752,
      "burrito": 8753,
      "gains": 8754,
      "default": 8755,
      "footage": 8756,
      "superior": 8757,
      "INCOME": 8758,
      "reflecting": 8759,
      "compliance": 8760,
      "2008": 8761,
      "alongside": 8762,
      "rolled": 8763,
      "globally": 8764,
      "tailor": 8765,
      "crystal": 8766,
      "adjustments": 8767,
      "appreciated": 8768,
      "behavioral": 8769,
      "savory": 8770,
      "circul": 8771,
      "squash": 8772,
      "Team": 8773,
      "gardens": 8774,
      "CO2": 8775,
      "displayed": 8776,
      "north": 8777,
      "therapies": 8778,
      "listened": 8779,
      "engineers": 8780,
      "forcement": 8781,
      "carrying": 8782,
      "radiation": 8783,
      "entirely": 8784,
      "breathtaking": 8785,
      "Engage": 8786,
      "obstacle": 8787,
      "disrupted": 8788,
      "emphasize": 8789,
      "occurred": 8790,
      "immediate": 8791,
      "gathered": 8792,
      "sufficient": 8793,
      "mistake": 8794,
      "chamber": 8795,
      "ghosts": 8796,
      "Edge": 8797,
      "Businesses": 8798,
      "battles": 8799,
      "assignment": 8800,
      "cyberbullying": 8801,
      "facilitated": 8802,
      "artifacts": 8803,
      "washing": 8804,
      "independence": 8805,
      "captures": 8806,
      "robust": 8807,
      "hospitals": 8808,
      "EPAct": 8809,
      "certific": 8810,
      "thousand": 8811,
      "masterpiece": 8812,
      "Chef2Chef": 8813,
      "zero": 8814,
      "Analytics": 8815,
      "desserts": 8816,
      "Brook": 8817,
      "Spec": 8818,
      "deploy": 8819,
      "coastal": 8820,
      "UCLA": 8821,
      "configure": 8822,
      "awkward": 8823,
      "frustrating": 8824,
      "segmentation": 8825,
      "Panel": 8826,
      "absence": 8827,
      "playlists": 8828,
      "aesthetic": 8829,
      "ceremony": 8830,
      "bustling": 8831,
      "Broadcom": 8832,
      "Olymp": 8833,
      "philosophy": 8834,
      "jalapen": 8835,
      "haunted": 8836,
      "newspaper": 8837,
      "Punic": 8838,
      "Stalinization": 8839,
      "cardiovascular": 8840,
      "Kahlo": 8841,
      "troublesho": 8842,
      "wisdom": 8843,
      "Doug": 8844,
      "Victorian": 8845,
      "Thomas": 8846,
      "milestones": 8847,
      "Mobile": 8848,
      "jewel": 8849,
      "lobby": 8850,
      "memoir": 8851,
      "practitioners": 8852,
      "EpochDay": 8853,
      "Hayden": 8854,
      "250": 8855,
      "315": 8856,
      "BO": 8857,
      "Bur": 8858,
      "Cred": 8859,
      "Dy": 8860,
      "Dun": 8861,
      "EC": 8862,
      "Fal": 8863,
      "Ferg": 8864,
      "Game": 8865,
      "Hill": 8866,
      "HIV": 8867,
      "Je": 8868,
      "Looking": 8869,
      "Laura": 8870,
      "MD": 8871,
      "NAS": 8872,
      "PD": 8873,
      "Pac": 8874,
      "Que": 8875,
      "RB": 8876,
      "Rest": 8877,
      "Rena": 8878,
      "Sa": 8879,
      "Space": 8880,
      "Sports": 8881,
      "Town": 8882,
      "UB": 8883,
      "Vue": 8884,
      "bones": 8885,
      "cider": 8886,
      "cending": 8887,
      "cats": 8888,
      "dangers": 8889,
      "fers": 8890,
      "flood": 8891,
      "fellow": 8892,
      "jun": 8893,
      "ln": 8894,
      "matters": 8895,
      "ode": 8896,
      "pant": 8897,
      "pants": 8898,
      "san": 8899,
      "south": 8900,
      "tical": 8901,
      "vow": 8902,
      "wan": 8903,
      "yiel": 8904,
      "yuan": 8905,
      "ths": 8906,
      "thors": 8907,
      "throw": 8908,
      "inf": 8909,
      "info": 8910,
      "erge": 8911,
      "enqueue": 8912,
      "esh": 8913,
      "alo": 8914,
      "alt": 8915,
      "tock": 8916,
      "it_comma_": 8917,
      "eding": 8918,
      "stur": 8919,
      "stall": 8920,
      "stum": 8921,
      "stitches": 8922,
      "isation": 8923,
      "asure": 8924,
      "assure": 8925,
      "sees": 8926,
      "adolescents": 8927,
      "imal": 8928,
      "amper": 8929,
      "iration": 8930,
      "unwa": 8931,
      "lover": 8932,
      "loving": 8933,
      "accompan": 8934,
      "urgent": 8935,
      "confront": 8936,
      "ulous": 8937,
      "ops": 8938,
      "oppress": 8939,
      "neut": 8940,
      "deb": 8941,
      "dear": 8942,
      "debut": 8943,
      "plain": 8944,
      "illion": 8945,
      "fries": 8946,
      "esteem": 8947,
      "apos": 8948,
      "anta": 8949,
      "ounce": 8950,
      "liking": 8951,
      "embro": 8952,
      "coin": 8953,
      "now_comma_": 8954,
      "worker": 8955,
      "crast": 8956,
      "prene": 8957,
      "compact": 8958,
      "drama": 8959,
      "therefore": 8960,
      "surely": 8961,
      "rental": 8962,
      "needle": 8963,
      "ggae": 8964,
      "blur": 8965,
      "curs": 8966,
      "YouT": 8967,
      "Ann": 8968,
      "Anne": 8969,
      "php": 8970,
      "Cham": 8971,
      "customization": 8972,
      "customizable": 8973,
      "fungus": 8974,
      "tooth": 8975,
      "surge": 8976,
      "signal": 8977,
      "dont": 8978,
      "Admin": 8979,
      "lightweight": 8980,
      "cheaper": 8981,
      "programme": 8982,
      "closure": 8983,
      "factory": 8984,
      "airline": 8985,
      "consists": 8986,
      "ucid": 8987,
      "parmes": 8988,
      "founded": 8989,
      "processed": 8990,
      "organisms": 8991,
      "Confl": 8992,
      "cleared": 8993,
      "investments": 8994,
      "decay": 8995,
      "athers": 8996,
      "athlete": 8997,
      "metric": 8998,
      "possibilities": 8999,
      "Beam": 9000,
      "hummus": 9001,
      "broccoli": 9002,
      "elections": 9003,
      "grounds": 9004,
      "sensit": 9005,
      "physi": 9006,
      "connectivity": 9007,
      "oregano": 9008,
      "musicians": 9009,
      "mainly": 9010,
      "println": 9011,
      "Something": 9012,
      "preventing": 9013,
      "optimized": 9014,
      "smoke": 9015,
      "Americans": 9016,
      "189": 9017,
      "liked": 9018,
      "climb": 9019,
      "gradu": 9020,
      "quantities": 9021,
      "attractions": 9022,
      "Question": 9023,
      "Meet": 9024,
      "integrating": 9025,
      "layout": 9026,
      "priorities": 9027,
      "itutes": 9028,
      "horse": 9029,
      "rugged": 9030,
      "turb": 9031,
      "ception": 9032,
      "Disney": 9033,
      "Prepare": 9034,
      "consuming": 9035,
      "webin": 9036,
      "breathe": 9037,
      "engineer": 9038,
      "separated": 9039,
      "Small": 9040,
      "SET": 9041,
      "radios": 9042,
      "General": 9043,
      "scram": 9044,
      "Buzz": 9045,
      "Veget": 9046,
      "cycles": 9047,
      "colony": 9048,
      "hydrated": 9049,
      "threatened": 9050,
      "Communication": 9051,
      "demographics": 9052,
      "arguments": 9053,
      "gathering": 9054,
      "deadlines": 9055,
      "samples": 9056,
      "moistur": 9057,
      "Offering": 9058,
      "hungry": 9059,
      "demonstrates": 9060,
      "jection": 9061,
      "pursuing": 9062,
      "ADAM": 9063,
      "Politics": 9064,
      "varying": 9065,
      "revolutionize": 9066,
      "journalist": 9067,
      "neighbour": 9068,
      "asylum": 9069,
      "aligns": 9070,
      "clarify": 9071,
      "375": 9072,
      "URL": 9073,
      "Harper": 9074,
      "instrumental": 9075,
      "tutorial": 9076,
      "hackers": 9077,
      "rewarding": 9078,
      "resonates": 9079,
      "blessings": 9080,
      "Grande": 9081,
      "digestion": 9082,
      "aesthe": 9083,
      "iatric": 9084,
      "Office": 9085,
      "Gibran": 9086,
      "Photo": 9087,
      "harvesting": 9088,
      "eliminate": 9089,
      "disappointed": 9090,
      "oysters": 9091,
      "soothing": 9092,
      "travels": 9093,
      "Industry": 9094,
      "Catholic": 9095,
      "Gorgon": 9096,
      "divided": 9097,
      "tackle": 9098,
      "plasma": 9099,
      "Establish": 9100,
      "Athena": 9101,
      "podcast": 9102,
      "arranged": 9103,
      "convinced": 9104,
      "Slowly": 9105,
      "LUCY": 9106,
      "Virtual": 9107,
      "attendees": 9108,
      "entreprene": 9109,
      "surgery": 9110,
      "Repeat": 9111,
      "OFFSET": 9112,
      "Garden": 9113,
      "Glorioso": 9114,
      "Chicago": 9115,
      "Renaissance": 9116,
      "unwavering": 9117,
      "parmesan": 9118,
      "33": 9119,
      "400": 9120,
      "67": 9121,
      "AUD": 9122,
      "Bear": 9123,
      "Cu": 9124,
      "Cell": 9125,
      "Di": 9126,
      "Distr": 9127,
      "Double": 9128,
      "ELL": 9129,
      "Five": 9130,
      "Fix": 9131,
      "Glo": 9132,
      "Hard": 9133,
      "LO": 9134,
      "Liber": 9135,
      "Learn": 9136,
      "MA": 9137,
      "NI": 9138,
      "NY": 9139,
      "NIG": 9140,
      "Ot": 9141,
      "PA": 9142,
      "Pack": 9143,
      "Pie": 9144,
      "PIC": 9145,
      "Run": 9146,
      "SI": 9147,
      "Sever": 9148,
      "Soup": 9149,
      "Simply": 9150,
      "TH": 9151,
      "Taking": 9152,
      "Tanz": 9153,
      "Taylor": 9154,
      "VAL": 9155,
      "Winter": 9156,
      "_html": 9157,
      "aqu": 9158,
      "bes": 9159,
      "cart": 9160,
      "ccer": 9161,
      "cub": 9162,
      "dings": 9163,
      "eu": 9164,
      "eur": 9165,
      "fills": 9166,
      "hide": 9167,
      "iy": 9168,
      "ikes": 9169,
      "iander": 9170,
      "jan": 9171,
      "jazz": 9172,
      "oamer": 9173,
      "pel": 9174,
      "parch": 9175,
      "paste": 9176,
      "sail": 9177,
      "tie": 9178,
      "txt": 9179,
      "uing": 9180,
      "uous": 9181,
      "inid": 9182,
      "inquir": 9183,
      "indeed": 9184,
      "erals": 9185,
      "rebuild": 9186,
      "onder": 9187,
      "ouched": 9188,
      "alter": 9189,
      "alleg": 9190,
      "itative": 9191,
      "stasy": 9192,
      "stabil": 9193,
      "armed": 9194,
      "arnet": 9195,
      "args": 9196,
      "isher": 9197,
      "assum": 9198,
      "icity": 9199,
      "chir": 9200,
      "chrom": 9201,
      "enters": 9202,
      "roat": 9203,
      "robots": 9204,
      "fork": 9205,
      "beads": 9206,
      "amen": 9207,
      "absent": 9208,
      "igated": 9209,
      "exports": 9210,
      "exterior": 9211,
      "ifice": 9212,
      "modu": 9213,
      "uncle": 9214,
      "unlock": 9215,
      "unauthorized": 9216,
      "acle": 9217,
      "agend": 9218,
      "trays": 9219,
      "maps": 9220,
      "degrad": 9221,
      "plag": 9222,
      "peak": 9223,
      "approv": 9224,
      "weaving": 9225,
      "fever": 9226,
      "antib": 9227,
      "artificial": 9228,
      "prise": 9229,
      "codes": 9230,
      "coins": 9231,
      "plex": 9232,
      "timelines": 9233,
      "provision": 9234,
      "ignored": 9235,
      "crank": 9236,
      "itee": 9237,
      "commiss": 9238,
      "precise": 9239,
      "gymnastics": 9240,
      "eping": 9241,
      "evil": 9242,
      "encount": 9243,
      "foil": 9244,
      "greg": 9245,
      "intention": 9246,
      "intellectual": 9247,
      "interpre": 9248,
      "boiled": 9249,
      "drilling": 9250,
      "observ": 9251,
      "extent": 9252,
      "curios": 9253,
      "examine": 9254,
      "struck": 9255,
      "phan": 9256,
      "diam": 9257,
      "buffer": 9258,
      "finance": 9259,
      "datac": 9260,
      "inviting": 9261,
      "funded": 9262,
      "donate": 9263,
      "specify": 9264,
      "Reyes": 9265,
      "Records": 9266,
      "versions": 9267,
      "salted": 9268,
      "2011": 9269,
      "Enh": 9270,
      "carb": 9271,
      "caramel": 9272,
      "ashes": 9273,
      "Tools": 9274,
      "glimp": 9275,
      "passwords": 9276,
      "Alone": 9277,
      "Always": 9278,
      "auditee": 9279,
      "talents": 9280,
      "fier": 9281,
      "blogging": 9282,
      "garments": 9283,
      "osis": 9284,
      "testmate": 9285,
      "Compan": 9286,
[...]
